e </w>
t </w>
s </w>
t h
d </w>
y </w>
. </w>
i n
a n
e r
o </w>
I </w>
e n
o u
, </w>
o r
o n
th e</w>
t o</w>
a r
g </w>
a </w>
in g</w>
i s</w>
a l
e d</w>
er </w>
t i
r e
f </w>
an d</w>
h a
o m
s t
l </w>
l i
in </w>
c h
" </w>
o f</w>
on </w>
s e</w>
w a
a t</w>
v e</w>
e s</w>
or </w>
an </w>
s h
o w
m </w>
k </w>
r i
l y</w>
i t</w>
en </w>
m y</w>
b e
m e</w>
w i
s t</w>
y ou
a y</w>
T h
l e
o o
l e</w>
a t
s i
th at</w>
l d</w>
wa s</w>
d i
w h
you </w>
v er
l l</w>
c e</w>
f or</w>
g h
! </w>
) </w>
o p
th e
th </w>
o t</w>
ow </w>
u r
u t</w>
( </w>
a b
k e</w>
er e</w>
a p
s e
ha ve</w>
u n
- -
i r
ch </w>
n '
n' t</w>
c a
p e
d ay</w>
r o
en t</w>
s o</w>
ar e</w>
' s</w>
r a
al </w>
n e
l a
en t
m a
? </w>
sh </w>
n </w>
ou t</w>
c om
p </w>
ou ld</w>
th is</w>
b e</w>
ti on</w>
i t
m e
wi th</w>
s u
w or
u se</w>
i c
d o</w>
n g
d e
E ng
I t</w>
n ot</w>
li sh</w>
t e
a c
a g
b ut</w>
s om
or e</w>
f e
Eng lish</w>
t t
on e</w>
ver y</w>
w e
l o
e x
J ap
s a
ar </w>
Th e</w>
th er</w>
om </w>
d s</w>
c on
al ly</w>
th in
t o
ou n
re a
an t</w>
m o
r </w>
gh t</w>
a s</w>
: </w>
c an</w>
li ke</w>
ab out</w>
c i
ha t</w>
wi ll</w>
n ow</w>
e l
f r
v i
ca use</w>
' m</w>
w e</w>
ti me</w>
m p
u d
\ </w>
an y</w>
e se</w>
s s</w>
m i
e t</w>
v er</w>
oo d</w>
t er</w>
fr om</w>
t er
u s
-- --
an g
k ing</w>
al l</w>
w </w>
t a
h e</w>
f or
op le</w>
h i
y e
be cause</w>
f ri
a s
t e</w>
pe ople</w>
p o
a m</w>
t s</w>
t r
thin k</w>
fri en
i </w>
f a
b y</w>
u l
ti on
y s</w>
m ore</w>
ha d</w>
st ud
o l
p ro
gh </w>
er s</w>
Jap an
f f
w ant</w>
m u
the y</w>
th ere</w>
. .</w>
p re
p ar
d a
ur e</w>
s pe
wh i
Japan ese</w>
i l
t ed</w>
ir </w>
s s
q u
at e</w>
s p
th ing</w>
h e
som e</w>
B ut</w>
M y</w>
p er
re c
o ther</w>
w ri
g o</w>
d e</w>
g ood</w>
som e
k now</w>
wh en</w>
t y</w>
on g</w>
w hat</w>
g o
= </w>
w ould</w>
the m</w>
f u
ha s</w>
d u
in g
a d
d er
j o
b o
ou gh</w>
m any</w>
ar d</w>
ou r</w>
c e
i f</w>
c ould</w>
Th is</w>
wa y</w>
f in
k s</w>
w ere</w>
u st</w>
y ing</w>
t u
oo k</w>
T o
en ce</w>
p la
d ing</w>
h er</w>
u p</w>
i d</w>
p p
whi ch</w>
the ir</w>
ir st</w>
Jap an</w>
ar y</w>
ti c
A n
w ent</w>
S o</w>
k ed</w>
ent s</w>
0 </w>
be en</w>
e l</w>
t ing</w>
d o
I n</w>
n a
wh o</w>
f ter</w>
n i
g et</w>
le a
oun d</w>
W h
ou s</w>
ch oo
s ay</w>
you r</w>
e y</w>
i mp
n o
le ar
c o
e v
a tion</w>
sh e</w>
ou r
W e</w>
j ust</w>
al so</w>
di d</w>
n ing</w>
di ff
h o
m on
m b
m ent</w>
t ri
p l
f irst</w>
e st
re ally</w>
ab le</w>
ag e</w>
wor k</w>
a d</w>
b u
e ver</w>
c or
r y</w>
s o
in ter
t ra
* </w>
---- ----
h is</w>
' </w>
s choo
s ent
f i
m in
sh ould</w>
ar s</w>
frien ds</w>
en d</w>
ma ke</w>
g e
d r
al l
ow n</w>
to day</w>
on ly</w>
f e</w>
com p
g s</w>
ou ght</w>
s ti
th an</w>
t al
d ed</w>
I f</w>
g i
s c
ha pp
m s</w>
e c
A </w>
l ot</w>
d y</w>
wa t
p a
schoo l</w>
g a
d er</w>
fu l</w>
b </w>
s on</w>
m es</w>
s .</w>
ne w</w>
tion s</w>
h om
mo st</w>
spe a
se l
. .
f ore</w>
h ow</w>
com e</w>
st r
k e
mu ch</w>
to o</w>
frien d</w>
c oun
go ing</w>
C h
w o</w>
st ar
g ra
To day</w>
b i
H e</w>
tt er</w>
ver y
h el
Wh en</w>
s si
it y</w>
sa id</w>
^ </w>
we e
tr y</w>
t ure</w>
c </w>
an ce</w>
e a
An d</w>
wri te</w>
v ing</w>
da ys</w>
st a
l u
/ </w>
g e</w>
ow ever</w>
se e</w>
u s</w>
at ed</w>
e i
m m
c a</w>
cor rec
g r
stud y</w>
us ed</w>
fe el</w>
wa ys</w>
g u
g re
g ot</w>
un der
in ce</w>
c es</w>
in e</w>
ou </w>
Th ere</w>
h ere</w>
] </w>
ti ve</w>
a ch
lea se</w>
la st</w>
[ </w>
m or
ye ar</w>
hi m</w>
- </w>
com m
c la
e very
a fter</w>
ye ars</w>
e p</w>
o f
l ang
re e</w>
' ve</w>
an s</w>
n o</w>
un i
W hat</w>
tt le</w>
under st
l ong</w>
0 0
p ri
k es</w>
th ough</w>
B e
' ll</w>
Y ou</w>
b ac
H owever</w>
it e</w>
t wo</w>
ta ke</w>
2 </w>
k in
Th ey</w>
y .</w>
8 </w>
op e</w>
. ..</w>
li ttle</w>
rea d</w>
or t
ma de</w>
ti mes</w>
v ed</w>
s ed</w>
l oo
e ly</w>
ne ed</w>
some thing</w>
; </w>
thin gs</w>
1 </w>
p r
ic </w>
be tter</w>
al ways</w>
c ol
p h
x t</w>
a u
diff er
v es</w>
we ll</w>
S he</w>
c k</w>
c u
ag a
mo vi
hom e</w>
st or
li fe</w>
s k
pro b
op </w>
er day</w>
ch ang
ca me</w>
al i
lang u
hel p</w>
ent ly</w>
ev en</w>
c t</w>
sel f</w>
bac k</w>
be fore</w>
w w
s er
t en
the se</w>
~ </w>
se e
sti ll</w>
m er
lo ve</w>
h ope</w>
e ar
Ch in
mb er</w>
spe ci
st e
su ch</w>
b r
l s</w>
on s</w>
an k</w>
or e
ver si
an s
3 </w>
in e
h ou
underst and</w>
inter est
te ach
o ld</w>
i ce</w>
fa mi
m an</w>
sent ence</w>
h ard</w>
o ver</w>
en jo
an y
ex a
b le</w>
s ince</w>
th ought</w>
ne xt</w>
f un
m ar
e .</w>
an d
l es</w>
w an
an i
lear n</w>
sh i
A l
e s
th en</w>
at ur
l t</w>
or t</w>
ic ul
e p
b ook</w>
happ y</w>
diff icul
p ic
5 </w>
A fter</w>
t en</w>
in to</w>
y ed</w>
e very</w>
s ur
wh y</w>
or r
sa me</w>
wh ere</w>
n u
jo b</w>
D o</w>
correc t</w>
con t
n ed</w>
s le
u su
wat ch
D </w>
do es</w>
c lo
wor ld</w>
c all
m y
d .</w>
mp le</w>
b us
c le
prob le
it s</w>
li st
T hat</w>
f ound</w>
l ow
ni ght</w>
I n
ca tion</w>
aga in</w>
t ur
wri ting</w>
s ure</w>
e f
di ary</w>
wat ch</w>
-------- --------
wor ds</w>
spea k</w>
v el
f ac
whi le</w>
i s
per i
r e</w>
li ve</w>
c ar
e w</w>
op p
tion al</w>
b oo
en er
me an</w>
de ci
o se</w>
b a
fin d</w>
ne ver</w>
na me</w>
difficul t</w>
h tt
S om
hou se</w>
rea ding</w>
g n</w>
hi gh</w>
m at
call ed</w>
wor d</w>
differ ent</w>
y be</w>
langu age</w>
k y
at ing</w>
t om
movi e</w>
ri ght</w>
stud ents</w>
versi ty</w>
htt p</w>
imp ro
ing s</w>
t ook</w>
S </w>
ye st
Be cause</w>
ar ound</w>
fami ly</w>
si te</w>
O n
tt ing</w>
o c
imp ort
be st</w>
mor ning</w>
K ore
wi th
en ces</w>
F or</w>
l l
n ow
u e</w>
in c
x </w>
e at</w>
2 00
4 </w>
ch il
ar i
m ay</w>
kin d</w>
star ted</w>
mer ic
v e
stud ying</w>
o ff
pla ce</w>
per son</w>
n er</w>
ti es</w>
th er
orr ow</w>
A s</w>
mu si
ra c
e t
M a
wee k</w>
r ed</w>
A meric
en g
s oun
g y</w>
H ow</w>
ag o</w>
c er
cla ss</w>
p u
stor y</w>
c our
re s</w>
n atur
a f
P lease</w>
du c
st er</w>
h u
for ei
k i
yest erday</w>
s on
my self</w>
st u
el l
ur ing</w>
al s</w>
tal k</w>
us ing</w>
of ten</w>
ea ch</w>
g ir
> </w>
bo dy</w>
mu st</w>
import ant</w>
mi ght</w>
me ans</w>
wan ted</w>
le c
en ing</w>
te ll</w>
an other</w>
s y
f ood</w>
c oo
u </w>
mm er</w>
a m
le ss</w>
di c
- 8</w>
gi ve</w>
coun try</w>
be au
or s</w>
e st</w>
po in
tic </w>
b ad</w>
soun ds</w>
Chin ese</w>
si de</w>
bi g</w>
N ow</w>
fin i
rea dy</w>
sh ed</w>
w on
9 </w>
v en</w>
fe w</w>
mon ey</w>
f t</w>
fe lt</w>
th r
s ing</w>
tu ally</w>
w in
V </w>
g in
t .</w>
ul ar</w>
usu ally</w>
p ut</w>
m ed</w>
bu y</w>
p lease</w>
ch e
dr en</w>
p s</w>
teach er</w>
Th ank</w>
s es</w>
gre at</w>
h </w>
be come</w>
some one</w>
p en
with out</w>
lear ning</w>
ex peri
j ec
To ky
fa v
comp any</w>
t we
ro om</w>
z e</w>
b it</w>
musi c</w>
cour se</w>
b ought</w>
th ree</w>
p rac
i l</w>
m an
On e</w>
p t</w>
co ld</w>
uni versity</w>
su b
beau ti
s m
chang e</w>
a k
L ang
di s
it ed</w>
A c
boo ks</w>
loo king</w>
to ld</w>
Toky o</w>
ni ce</w>
chil dren</w>
ne w
dr in
natur al</w>
fe el
ke ep</w>
pl an
tt en</w>
A t</w>
i de
t y
me et</w>
in t
par t</w>
be ing</w>
a ch</w>
be li
w om
e ve</w>
m a</w>
Th en</w>
p op
al ready</w>
w al
interest ing</w>
ag es</w>
c ity</w>
re la
impro ve</w>
te st</w>
wor king</w>
t es</w>
v el</w>
exa mple</w>
he ard</w>
6 </w>
c ur
' d</w>
ine ss</w>
s en
su mmer</w>
v a
sa w</w>
tom orrow</w>
C </w>
deci ded</w>
twe en</w>
some times</w>
a i
stud ent</w>
ex pre
fe c
beauti ful</w>
d uring</w>
u gh
R e
i es</w>
tri es</w>
cle ar</w>
ch ar
, I</w>
c ul
si on</w>
be tween</w>
S e
l ook</w>
pl ay</w>
T o</w>
l at
as ked</w>
st s</w>
speci ally</w>
mo ther</w>
T V</w>
< </w>
t ly</w>
con d</w>
ww w
w ar
t or</w>
star t</w>
th ose</w>
ma kes</w>
_ _
b ro
me an
enjo y</w>
. com
so on</w>
w ard</w>
www .
ap p
g n
le t</w>
d in
qu es
/ www.
fav or
ra in
of f</w>
1 0</w>
en ed</w>
our s</w>
ar e
i ght</w>
0 0</w>
ex c
h ot</w>
l ed</w>
l ow</w>
ti ce</w>
coun tries</w>
we a
d own</w>
b lo
on g
ti l</w>
k en</w>
d ra
p i
tr ans
c ou
p e</w>
col le
b or
at ure</w>
h ar
An y
mon th</w>
ri ed</w>
so ci
en ough</w>
er e
v o
z ed</w>
p as
ow er</w>
proble m</w>
ti v
ne t</w>
7 </w>
d en
m ent
R </w>
favor ite</w>
t re
d ly</w>
m ous</w>
rea son</w>
H a
ss ed</w>
I s</w>
Lang -8</w>
thr ough</w>
er ed</w>
par ents</w>
for t
re su
al most</w>
o k
O n</w>
forei gn</w>
wor k
s ol
ch o
f ol
F r
fu ture</w>
s ent</w>
c k
sent ences</w>
ho li
every one</w>
th ers</w>
or i
at ely</w>
ou t
me mber</w>
de vel
un </w>
h ours</w>
d rea
se ar
un til</w>
ar t</w>
fun </w>
E </w>
mi l
o b
2 0
p ho
fa mous</w>
ent ry</w>
r u
ch ec
i li
ti red</w>
wee k
c ed</w>
ans w
cont in
e as
' re</w>
.com </w>
K </w>
b ir
he al
ge tting</w>
s ing
watch ed</w>
ga me</w>
o ver
wri tten</w>
b rea
mon th
beli eve</w>
f re
c are</w>
re sta
ch i
sm all</w>
bo th</w>
resta ur
in i
g g
a st</w>
T </w>
ma tion</w>
n y</w>
cla ss
sur pri
se cond</w>
Ma ybe</w>
do ing</w>
int ro
A u
Y est
or der</w>
j our
po ssi
S t
l un
tri ed</w>
in for
ce ss
ti t
c re
ter s</w>
e specially</w>
par ty</w>
in ed</w>
ro ad</w>
ta in</w>
Americ an</w>
se as
to ge
te ch
spea king</w>
tal king</w>
da y
sk il
watch ing</w>
B y</w>
com ing</w>
see ms</w>
h er
na tive</w>
le ss
l ate</w>
sle ep</w>
ssi on</w>
N o
si tu
str u
ph one</w>
o d</w>
gra du
Any way</w>
v en
b li
pro gra
N ew</w>
Yest erday</w>
w r
k now
W e
b and</w>
ne e
any thing</w>
ste ad</w>
m ents</w>
ing .</w>
da ugh
an ks</w>
c ar</w>
mi sta
wea ther</w>
b all</w>
d ri
eas y</w>
l ing</w>
Som e</w>
tu res</w>
wa ter</w>
po li
Al though</w>
Kore an</w>
thin king</w>
le ft</w>
de si
re ali
bus y</w>
min u
ell o</w>
ou s
c ha
pa st</w>
u p
de li
s it</w>
c lu
w ro
c ent
Som e
toge ther</w>
s al
li ving</w>
H ello</w>
ic i
min d</w>
con si
for ward</w>
interest ed</w>
sy ste
l ine</w>
g ar
me .</w>
l and</w>
r ing</w>
wro te</w>
jour n
S h
g ener
sh op</w>
a ke</w>
me t</w>
lo gy</w>
e mp
or ry</w>
tr ying</w>
at es</w>
di tion</w>
devel op
vi ew</w>
off ice</w>
sh ow</w>
stu di
d ent</w>
f lu
M o
f oo
ea si
ex pe
tri p</w>
st ed</w>
b ed</w>
ga ve</w>
R ec
ne ar</w>
ha ving</w>
prac tice</w>
f ree</w>
it ing</w>
ang e</w>
F irst</w>
k et</w>
st re
won der
go ver
re p
s ound</w>
te mp
a way</w>
% </w>
pop ular</w>
ab ly</w>
skil ls</w>
con ver
H i</w>
for m
S ince</w>
par t
new s</w>
w an</w>
lun ch</w>
vi ce</w>
gir l</w>
.. ..
c all</w>
u m</w>
D e
pic ture</w>
month s</w>
g la
s un
bus iness</w>
ma ybe</w>
c y</w>
h and</w>
f il
li sh
ra in</w>
O r</w>
e ss</w>
Wh y</w>
ar tic
du ce</w>
spea k
v </w>
Chin a</w>
gover n
list ening</w>
tra in</w>
ear ly</w>
o thers</w>
O f</w>
loo ked</w>
e -
fini shed</w>
ce ss</w>
c al</w>
d es</w>
T O
se t</w>
experi ence</w>
u se
Th ere
Ac tually</w>
n g</w>
v al</w>
wi fe</w>
comp le
pu bli
wh e
daugh ter</w>
la tion</w>
s ong</w>
y o
p ower</w>
in stead</w>
se ver
comp u
re f
ou gh
st ay</w>
n a</w>
as k</w>
su pp
st y
ex am</w>
S u
e lec
U n
rec ently</w>
shi p</w>
in ing</w>
Rec ently</w>
st om
l ud
fa ther</w>
ph ra
conver sa
There fore</w>
c at
restaur ant</w>
Th ese</w>
we b
be g
l y
po si
din ner</w>
char ac
proble ms</w>
opp ing</w>
c ted</w>
fac t</w>
qu ite</w>
com es</w>
e ty</w>
v ari
m .</w>
you ng</w>
wr ong</w>
qu i
m en</w>
i ma
ou p</w>
vi si
movi es</w>
mean ing</w>
E ven</w>
it al</w>
be came</w>
W i
me mb
ide a</w>
d en</w>
ma king</w>
hi gh
or y</w>
in s</w>
L i
na tional</w>
ap </w>
possi ble</w>
ic al</w>
y c
on t</w>
fol low
infor mation</w>
ar ri
pr op
ma s</w>
tal ked</w>
Al so</w>
ap er</w>
list en</w>
sh ort</w>
drin k</w>
h al
ci ous</w>
ab ili
on ce</w>
si ve</w>
situ ation</w>
enjo yed</w>
every thing</w>
sle ep
con om
fa ce</w>
sc ri
y et</w>
bu il
vi sit</w>
Kore a</w>
In ter
ad v
ap pe
W hi
sh ow
re member</w>
ca se</w>
chang ed</w>
wor ks</w>
feel ing</w>
minu tes</w>
ta king</w>
wi sh</w>
jec t</w>
e y
c tion</w>
pro duc
govern ment</w>
lear ned</w>
syste m</w>
se en</w>
in v
every day</w>
an g</w>
whe ther</w>
op ini
Eng lish
a w
ex pla
er ing</w>
al ity</w>
me mor
c r
surpri sed</w>
h us
da y.</w>
l ar
ne ss</w>
he ar</w>
C om
1 9
sa ying</w>
pla ying</w>
it .</w>
th qu
vi de
n er
L ast</w>
3 0</w>
con cer
u k
tur n</w>
f ar</w>
sear ch</w>
nu clear</w>
n or
fa st</w>
seas on</w>
h a</w>
cul ture</w>
a tions</w>
---------------- ----------------
g en
f f</w>
hel p
mi d
inc rea
tech no
inc lud
L </w>
drea m</w>
st e</w>
t on
con f
poin t</w>
en ti
sh i</w>
you tu
o es</w>
he a
holi day</w>
nu mber</w>
N </w>
colle ge</w>
fin e</w>
c ri
t ou
comm un
be gin
no thing</w>
su c
ex pen
e conom
m en
fe e</w>
at ten
sever al</w>
rec ei
on es</w>
pla yed</w>
sh opping</w>
ab road</w>
ch ance</w>
s ons</w>
st ri
e ting</w>
ac t</w>
d ge</w>
hus band</w>
fe ct</w>
ic k
wom en</w>
e w
sti val</w>
ch ed</w>
c li
ir d</w>
answ er</w>
ac tually</w>
t op
an ds</w>
tr ue</w>
li ght</w>
1 1</w>
happ ened</w>
as ed</w>
sp end</w>
G ood</w>
s ha
t ors</w>
va cation</w>
-- </w>
week end</w>
sa d</w>
journ al</w>
th day</w>
pr on
st ore</w>
te ach</w>
P e
ear thqu
M </w>
t own</w>
c ra
chec k</w>
M i
P </w>
speci al</w>
wh o
M ar
t end</w>
comm on</w>
hal f</w>
o ve</w>
k n
re al</w>
200 9</w>
c an
li ves</w>
ha ir</w>
er .</w>
gu ess</w>
er i
publi c</w>
h un
la ck</w>
langu ages</w>
d re
per son
f ul
M any</w>
resu lt</w>
compu ter</w>
Th anks</w>
A ll</w>
sty le</w>
O </w>
un ately</w>
e du
u ght</w>
ce pt</w>
eng lish</w>
pre sent</w>
ri ce</w>
v ir
ic s</w>
won der</w>
fr ont</w>
af ter
m al</w>
re comm
/ watch</w>
youtu be
wom an</w>
ma il</w>
Ch ri
ques tion</w>
chi ld</w>
ce .</w>
F in
st op</w>
po or</w>
ri es</w>
e ating</w>
c ap
youtube .com</w>
are a</w>
str ange</w>
di sc
prob ably</w>
b ab
c l
l ong
me di
ma in</w>
clo th
sp on
s orry</w>
in es</w>
abili ty</w>
T ai
l ated</w>
W or
lea ve</w>
Ha ve</w>
studi ed</w>
sen se</w>
g ge
li es</w>
g oo
te am</w>
ser i
N o</w>
a ma
or ts</w>
ev ed</w>
c rea
r un
pl an</w>
/www. youtube.com</w>
er ci
sk i
son gs</w>
str ong</w>
s po
vi ous</w>
lo ts</w>
cloth es</w>
ma j
pic tures</w>
d one</w>
o ke</w>
at e
lat er</w>
conversa tion</w>
lo st</w>
who le</w>
lea st</w>
k a</w>
fu ll</w>
web site</w>
ener gy</w>
ir e</w>
bir thday</w>
S un
he ld</w>
2 0</w>
fun ny</w>
j i</w>
kn own</w>
m om
cor ding</w>
inter net</w>
win ter</w>
d le</w>
sp ring</w>
e le
se .</w>
an t
deli cious</w>
me ss
ti ci
an ts</w>
gra mm
cu stom
tra vel</w>
mista kes</w>
b s</w>
pla y
for m</w>
s we
p ay</w>
t oo
a ce</w>
F ri
s ci
Y </w>
We ll</w>
sa ys</w>
z ing</w>
progra m</w>
f our</w>
TO E
ye ar
me eting</w>
di rec
ti s
i m
en s</w>
p ur
differ ence</w>
su p
z y</w>
co f
tr ou
i ly</w>
heal th</w>
imp re
er ry</w>
aga in
coo l</w>
E very
i gh
par ed</w>
st ing</w>
f low
ne cess
fin ally</w>
F e
easi ly</w>
h our</w>
U ni
di tional</w>
e ss
du e</w>
contin u
Americ a</w>
tr u
tt y</w>
b l
ur </w>
C an
usu al</w>
no on</w>
O h</w>
pre ci
wal k</w>
soci ety</w>
Some times</w>
un der</w>
ar ed</w>
earthqu ake</w>
ar ing</w>
s wi
U </w>
mi </w>
pre sent
artic le</w>
wee ks</w>
vari ous</w>
pa in
me dic
opini on</w>
e ar</w>
M on
e d
tur ned</w>
tion .</w>
t op</w>
re spon
ho sp
gla d</w>
kin ds</w>
al e</w>
j u
ra ther</w>
ous ly</w>
hom e
.. ..</w>
opp ed</w>
er y</w>
al one</w>
v al
te ly</w>
memb ers</w>
gr oup</w>
D ay</w>
cof fee</w>
vide o</w>
f er</w>
E x
gramm ar</w>
sel ves</w>
wor ked</w>
techno logy</w>
bu s</w>
hu man</w>
C on
cur r
emp lo
ll ing</w>
re li
_ </w>
B </w>
elec tri
ad dition</w>
clu b</w>
commun ic
a ir
v ol
intro duce</w>
ori gin
L et</w>
ow n
cu te</w>
C an</w>
he art</w>
le .</w>
s k</w>
t able</w>
out side</w>
__ __
Chri st
or g
com fort
pla ces</w>
car e
ta tion</w>
ques tions</w>
follow ing</w>
mo ve</w>
wa it</w>
do g</w>
P ar
H is</w>
c al
expen sive</w>
gr ap
a ir</w>
pas sed</w>
comp ani
rea sons</w>
le vel</w>
m ing</w>
yc le</w>
fini sh</w>
en ding</w>
expla in</w>
T om
der ly</w>
sh ing</w>
choo se</w>
pro fe
y en</w>
phra se</w>
ag ed</w>
exc ited</w>
si mil
p le</w>
h on
contin ue</w>
ga mes</w>
tra vel
tic ed</w>
ab ove</w>
co st</w>
b ri
S ing
less on</w>
know le
+ </w>
loo ks</w>
r un</w>
si ster</w>
b ur
reali zed</w>
st ra
fe stival</w>
he ad</w>
B o
re ac
c er</w>
teach ers</w>
re qu
su ff
ha ha</w>
st ation</w>
str ali
edu cation</w>
sol u
Pe ople</w>
pre vious</w>
U S</w>
te xt</w>
O R</w>
re search</w>
p le
u t
pr om
Au strali
us si
tic al</w>
sh es</w>
ce p
pro vi
tic s</w>
ta kes</w>
ter ri
h owever</w>
ra id</w>
bab y</w>
intro duc
sp ent</w>
class es</w>
pre tty</w>
el derly</w>
y a</w>
den ly</w>
see ing</w>
ac ci
fi ed</w>
t w
re st</w>
st ance</w>
ty pe</w>
th ough
ss es</w>
Christ mas</w>
af raid</w>
is su
de pen
con ven
su d
arri ved</w>
ra di
c ut</w>
po se</w>
s now</w>
use ful</w>
wor ried</w>
S o
li c
expre ss</w>
vir on
vi ew
1 0
der ed</w>
ch ing</w>
necess ary</w>
do c
heal th
k new</w>
bor n</w>
see med</w>
we ar</w>
ef fec
wonder ful</w>
oun t</w>
ap preci
st an
qu ick
desi gn</w>
Inter net</w>
clo se</w>
K yo
mo ved</w>
the m
fi ve</w>
de scri
mar ket</w>
temp er
ey es</w>
Mo st</w>
h ur
00 0</w>
fi sh</w>
f ic</w>
li gh
t wi
Sun day</w>
exa min
to t
i se</w>
D i
mat ter</w>
Sing ap
gn ers</w>
v ic
e s.</w>
comfort able</w>
y e</w>
pro cess</w>
M e
ag ree</w>
li m
gr and
J ust</w>
op s</w>
Fin ally</w>
opp ort
H ere</w>
begin ning</w>
B ri
at er</w>
en viron
S atur
any one</w>
N ot</w>
nee ded</w>
U S
A r
ar t
v y</w>
al though</w>
drin king</w>
P o
di vi
simil ar</w>
y si
si mple</w>
Y ear</w>
b en
pho to
g ni
x i
li ved</w>
ou th</w>
mom ent</w>
I N
d -
al .</w>
ner v
ex erci
tra ditional</w>
rain y</w>
A re</w>
knowle dge</w>
po sed</w>
compani es</w>
ir ed</w>
beg an</w>
ten se</w>
f ic
lo l</w>
pri ce</w>
speak ers</w>
sent en
us es</w>
A b
par k</w>
after noon</w>
fort unately</w>
ev ent</w>
s is</w>
re gi
bo y</w>
ev ening</w>
Kyo to</w>
da ily</w>
ho b
ei ther</w>
G er
ent ries</w>
b ic
we ll
m oun
Uni versity</w>
re lated</w>
develop ment</w>
p aper</w>
sc ore</w>
i P
p or
you ng
wa iting</w>
en ded</w>
as si
H i
pa ss</w>
N a
for get</w>
ro om
h and
T i
et c</w>
P ro
on .</w>
com pe
bo y
app li
visi ted</w>
lar ge</w>
me ant</w>
Whi le</w>
te a</w>
communic ate</w>
quick ly</w>
expe cted</w>
hi story</w>
op en</w>
English .</w>
il ed</w>
b er</w>
supp ort</w>
ma in
vo ice</w>
Fr om</w>
wh ite</w>
I C</w>
s p</w>
O K</w>
spe e
con ne
br ing</w>
ent r
en ch</w>
all ow
thin g
po st</w>
hosp ital</w>
.. .
rela tion
ski ll</w>
s tic</w>
pa in</w>
gu y</w>
cont ro
forei gners</w>
m ate</w>
an ci
se a</w>
ser vice</w>
ta ken</w>
s mi
ssi ons</w>
t or
resu l
maj or</w>
nee ds</w>
t ab
R ussi
il s</w>
con fi
stru c
ce le
gir ls</w>
bro ther</w>
ud e</w>
nerv ous</w>
st ly</w>
p are</w>
P er
ti ves</w>
, and</w>
ho te
ef for
conven i
go es</w>
bi li
eng ine
O ur</w>
Th ough</w>
Satur day</w>
dic tion
s now
see m</w>
n ers</w>
d ence</w>
gh t
M ay</w>
O sa
temper ature</w>
z z
blo g</w>
at tra
N ex
ol der</w>
you r
sk y</w>
ar ly</w>
ter m</w>
ap poin
war m</w>
li br
b ar
frien d
v oc
t ball</w>
ss ing</w>
E very</w>
A pri
uni or</w>
wan ts</w>
cou ra
s our
S ep
sel f
ag e
s mo
tic ally</w>
lo g
pre pare</w>
ti me
ci ation</w>
li ked</w>
gir l
j ap
an k
s som
un e</w>
recomm end</w>
min e</w>
J u
Nex t</w>
ki ds</w>
, but</w>
seri ous</w>
sa tis
su per
tit le</w>
Singap ore</w>
1 2</w>
a th
e g
gr ow
lo c
top ic</w>
s end</w>
mar ried</w>
x ed</w>
w oke</w>
c ook</w>
co ver
r ate</w>
d ding</w>
sta yed</w>
ac k</w>
C hi
tiv ely</w>
l y.</w>
mm ing</w>
Ac cording</w>
sc en
il l
te x
posi tion</w>
mat es</w>
E ur
TOE IC</w>
op er
gu ys</w>
si des</w>
g one</w>
ach i
li fe
run ning</w>
f all</w>
S a
ima g
soci al</w>
re g
Fr ench</w>
th ank</w>
k i</w>
st er
brea k</w>
c lear
u ary</w>
feel ings</w>
lo se</w>
Apri l</w>
sh are</w>
at u
again st</w>
t ow
ad a</w>
al ong</w>
Ab out</w>
C ould</w>
h t
ou d</w>
am ount</w>
fr u
recei ved</w>
ck y</w>
Y es</w>
sud denly</w>
n b
tici p
in d</w>
d on</w>
g lo
sp orts</w>
ta ste</w>
J o
5 0</w>
lang -8</w>
a vo
at a</w>
buil ding</w>
poin ts</w>
we b</w>
Sep te
colle ag
o s</w>
blo ssom
1 5</w>
me th
th ird</w>
ha te</w>
pre fer</w>
le tter</w>
f lo
ben ef
no ticed</w>
g ed</w>
j unior</w>
ab ul
pa ti
N ice</w>
& nb
&nb sp</w>
origin al</w>
d a</w>
e f</w>
d an
u lation</w>
bo ss</w>
d ance</w>
sp ace</w>
in k</w>
wal king</w>
S p
el se</w>
Wor ld</w>
Australi a</w>
Tom orrow</w>
Osa ka</w>
tra ining</w>
P re
show s</w>
ne y</w>
pho to</w>
c ing</w>
rain ing</w>
go al</w>
comm uni
Be fore</w>
terri ble</w>
we ight</w>
gi ven</w>
ton ight</w>
di sa
mid dle</w>
ad d</w>
charac ter</w>
pron un
win d
gge st</w>
peri od</w>
Tai wan</w>
fil m</w>
c ent</w>
her e.</w>
ca ke</w>
brea k
includ ing</w>
E R
Septe mber</w>
so c
boo k
ve ge
ma ch
f la
d ers</w>
it e
them selves</w>
b lu
m ale</w>
produc ts</w>
cou ple</w>
na med</w>
rec or
boy friend</w>
sub ject</w>
comple tely</w>
qu e</w>
ch es</w>
h y
doc tor</w>
happ en</w>
gr ound</w>
re spe
expre ssion</w>
am ong</w>
star ting</w>
d ol
gu e</w>
on e
H er</w>
exc iting</w>
d ate</w>
mess age</w>
st opped</w>
ver b</w>
ag o
trou ble</w>
per form
g on</w>
be er</w>
sp ending</w>
ch an
n s</w>
ta ught</w>
de fin
ar r
nor mal</w>
s ,</w>
par tic
hote l</w>
work ers</w>
f l
home work</w>
b as
Fri day</w>
e ce</w>
s me
jo in</w>
gradu ate</w>
lo cal</w>
jo ined</w>
& </w>
foo ds</w>
Th e
den ti
pop ulation</w>
ha ps</w>
m p</w>
per fect</w>
hom et
on -
M ore
d ou
long er</w>
Can ada</w>
be low</w>
dra ma</w>
inter national</w>
on line</w>
speak er</w>
en ds</w>
swe et</w>
T e
Se e</w>
ti me.</w>
appreci ate</w>
sa fe
ment ary</w>
ent er</w>
c at</w>
shi ma</w>
at s</w>
ac coun
gre en</w>
s ,
c s</w>
libr ary</w>
coo king</w>
/ /www.
n oun
sp ite</w>
grap h
D uring</w>
k il
m n</w>
b lack</w>
O c
sa ve</w>
Wi th</w>
wa ke</w>
ch i</w>
ph ysi
K an
s che
ho ld</w>
in side</w>
at t
cer tain</w>
sta ff</w>
P C</w>
G </w>
ch erry</w>
br ought</w>
hea vy</w>
cu ri
ad vice</w>
lo gi
bic ycle</w>
li on</w>
A N
bor ing</w>
min i
k er</w>
we l
con di
cat ch</w>
spee ch</w>
ani m
un ity</w>
ta in
More over</w>
do or</w>
. ht
resul ts</w>
H ar
clo ck</w>
ide as</w>
v ely</w>
en cy</w>
an o</w>
m om</w>
. I</w>
ba si
d ang
li kes</w>
s tic
re turn</w>
D V
ur al</w>
cle an</w>
e ld</w>
par ticip
ex i
l ab
F </w>
voc abul
ar ds</w>
cer e
$ </w>
de gre
c ard</w>
cho col
ac e
diction ary</w>
teach ing</w>
f oc
ful ly</w>
sleep y</w>
ro ss</w>
A n</w>
ke ep
ge ts</w>
young er</w>
l on
curr ent</w>
bac k
Whi ch</w>
N e
Mar ch</w>
environ ment</w>
cle an
gra de</w>
for got</w>
pronun ciation</w>
G re
go tten</w>
homet own</w>
o k</w>
atten tion</w>
mi ss</w>
ap art
pre par
A si
S hi
ex cept</w>
d ar
st ry</w>
pri v
u es</w>
k a
g y
less ons</w>
en ever</w>
tiv ity</w>
s ou
wor ry</w>
p es</w>
org ani
h or
Y our</w>
fin al</w>
bili ty</w>
charac ters</w>
An other</w>
dr ank</w>
lu cky</w>
mat eri
pro te
divi du
de ta
la ugh
f ur
cr ow
ch all
wa days</w>
soc cer</w>
ment al</w>
ari es</w>
ag ing</w>
ex change</w>
so f
g er</w>
ssi on
every body</w>
ti sh</w>
pr in
R o
h it</w>
f er
holi days</w>
trans late</w>
Q u
ff ici
li ar</w>
at or</w>
# </w>
b al
in ten
senten ce.</w>
ak i</w>
mon y</w>
se a
m ul
S orry</w>
te le
s ..</w>
r an</w>
si mp
con su
in dividu
se ball</w>
li ke
ti vi
help ed</w>
mista ke</w>
S ky
th at
cho ice</w>
m it
c ir
k u</w>
k ey</w>
are as</w>
ssi ve</w>
n oo
p m</w>
ap pro
b ased</w>
tion ed</w>
ca ught</w>
hu ge</w>
for e
sh ops</w>
stre et</w>
ke ts</w>
increa se</w>
exerci se</w>
concer t</w>
si l
deci de</w>
au th
Oc to
G od</w>
ser ies</w>
har der</w>
d own
, 000</w>
li er</w>
I tal
ex p
part ment</w>
stor ies</w>
relation ship</w>
si x</w>
h ood</w>
st .</w>
plan ning</w>
col or</w>
we dding</w>
m l</w>
si ck</w>
ple as
ll ed</w>
en ced</w>
present ation</w>
easi er</w>
or din
Mon day</w>
w on</w>
sup posed</w>
1 00</w>
st and</w>
- time</w>
wor se</w>
tot ally</w>
str ong
in flu
20 10</w>
vocabul ary</w>
en coura
jec ts</w>
sle pt</w>
ex ac
de m
inter view</w>
examin ation</w>
s m</w>
la w</w>
ag er</w>
sh oc
dra w
ne igh
ga in</w>
fec ture</w>
your self</w>
-- -</w>
health y</w>
acci dent</w>
ke pt</w>
C a
tr an
s li
ac tivi
y -
a mi</w>
en d
s day</w>
underst ood</w>
loc ated</w>
ad ul
ef ul
bi le</w>
V i
Au g
re gre
flow ers</w>
ti ll</w>
oc cur
cent er</w>
A d
communi cation</w>
an a</w>
le ad
Octo ber</w>
con tra
cele br
girl friend</w>
imag ine</w>
com b
o ssi
blu e</w>
In di
medic al</w>
z </w>
wal ked</w>
T u
com pared</w>
th anks</w>
l er</w>
H app
c ts</w>
Bri tish</w>
entr ance</w>
sleep ing</w>
t -
re pe
c ars</w>
fe ll</w>
T ha
perform ance</w>
p ow
su ally</w>
tu mn</w>
compe ti
st ers</w>
sol ve</w>
expre ssions</w>
at tend</w>
win d</w>
cont act</w>
tab les</w>
qu ality</w>
1 st</w>
opport unity</w>
speci fic</w>
reali ze</w>
k o</w>
emplo ye
exa mp
f an
ir s</w>
plan ts</w>
re gar
e tic</w>
3 0
jo bs</w>
dre ss</w>
correc tions</w>
L on
F u
ani sh</w>
dri ving</w>
y a
rep ort</w>
ama zing</w>
Sky pe</w>
de pre
conf used</w>
D id</w>
high er</w>
anim als</w>
D oes</w>
consi der</w>
b al</w>
i sed</w>
pl ant</w>
20 11</w>
uk u
Aug ust</w>
h op
person al</w>
e ffici
N or
new sp
suc cess
versi on</w>
exac tly</w>
ok ay</w>
1 1
schoo ls</w>
te l
an ding</w>
・ </w>
apart ment</w>
dis appoin
comm ents</w>
E n
hel ps</w>
i or</w>
mo tiv
ele mentary</w>
dri ve</w>
ent ed</w>
beg in</w>
cover ed</w>
break fast</w>
effor t</w>
avo id</w>
c up</w>
hi m
b er
c tive</w>
e mo
tru th</w>
di sp
J an
ess ay</w>
re si
d ings</w>
fi eld</w>
au di
mo der
Re tri
fa shi
jap an
moun tain</w>
f y</w>
z ation</w>
sp i
ther e
econom ic</w>
activi ties</w>
respon si
swi mming</w>
fi g
ba seball</w>
on e.</w>
lo ved</w>
X </w>
su </w>
gi ves</w>
b ye</w>
s mar
con cent
T H
K o
sti tu
M r</w>
gi ving</w>
et c
ang ry</w>
con dition</w>
di es</w>
ba th</w>
ac tion</w>
bo x</w>
exa ms</w>
mu se
fe ature</w>
f ar
di shes</w>
orr ow
aw a</w>
y ,
fami liar</w>
ad ver
n is</w>
im medi
a th</w>
issu e</w>
s .
st ep</w>
b le
ta ins</w>
li ter
ca mer
so ld</w>
co -
n ature</w>
f all
ca st</w>
m ma
y ..</w>
memor i
pl ans</w>
frien dly</w>
eful ly</w>
sp ort</w>
Ju ly</w>
fre sh</w>
bu tt
ter native</w>
econom y</w>
in du
com pla
cra zy</w>
du ct</w>
di ed</w>
pro ject</w>
l .</w>
men tioned</w>
tou ch</w>
o -
smi le</w>
Un fortunately</w>
Retri eved</w>
ic k</w>
tu re
ear lier</w>
trans lation</w>
a .</w>
wa ste</w>
ta st
ca fe</w>
t a</w>
de al</w>
correc ted</w>
y u
The ir</w>
con clu
e al
contro l</w>
re le
h ands</w>
gener al</w>
consi der
gge s
it ely</w>
p er</w>
flo or</w>
oo l</w>
h one</w>
da ma
ac k
class mates</w>
bo ard</w>
par ts</w>
p ort</w>
un k</w>
wonder ing</w>
le tt
cere mony</w>
be ha
de st
c ks</w>
c le</w>
vol un
satis fied</w>
pron oun
a .
Japan e
ri de</w>
custom ers</w>
oo oo
twi ce</w>
re ly</w>
pro gre
B i
fi re
Lon don</w>
inter est</w>
ne ga
i an</w>
e- mail</w>
ar a
mo bile</w>
with in</w>
E specially</w>
ca used</w>
any more</w>
sun ny</w>
4 0</w>
r ap
ac tive</w>
di sh</w>
happ iness</w>
stu ff</w>
ga z
T a
rec o
fol low</w>
N i
ar ti
Every one</w>
.. ...</w>
we aring</w>
know s</w>
list ened</w>
chec ked</w>
adv ant
tri bu
li st</w>
ou n</w>
si tes</w>
U sually</w>
A R
to day.</w>
S pe
electri city</w>
L e
play er</w>
ac cep
blossom s</w>
safe ty</w>
gu it
K i
sh ir
Q </w>
pre v
en se</w>
in j
ref er
F uku
Happ y</w>
Wh o</w>
ch ose</w>
I D</w>
wor l
vege tables</w>
profe ss
tou ri
l ay</w>
b ra
ten nis</w>
s un</w>
some day</w>
t ough</w>
photo s</w>
R a
gener ation</w>
ma gaz
di st
G u
though ts</w>
sp here</w>
hob by</w>
me al</w>
sh oes</w>
o '
Th us</w>
gr ow</w>
St ud
al co
in no
} </w>
Be sides</w>
H o
c hat</w>
su shi</w>
on i
defin itely</w>
care ful</w>
or ity</w>
crea m</w>
Se cond</w>
sta ying</w>
b la
Ger man</w>
de partment</w>
o ther
R i
stre ss</w>
part -time</w>
th re
p age</w>
b ar</w>
chocol ate</w>
in st
sing le</w>
am a</w>
pho on</w>
th i
o o</w>
ma ster</w>
pi ece</w>
K a
hou se
d ents</w>
sci ence</w>
Sp anish</w>
mo de
w in</w>
d ro
be comes</w>
US A</w>
tre es</w>
posi tive</w>
the m.</w>
be coming</w>
g ned</w>
disc us
pl ural</w>
c tions</w>
expe ct</w>
.ht ml</w>
bro ken</w>
f ra
conclu sion</w>
k ers</w>
{ </w>
e mb
tu al</w>
at mo
S y
b a</w>
wi se</w>
bro ad
ser ve</w>
k u
s l
Russi an</w>
s wee
differ ences</w>
op ened</w>
s oup</w>
cli mb
develop ed</w>
pur pose</w>
F ur
pe op
li g
tur al</w>
d ..</w>
comm a</w>
f ir
ul es</w>
na mes</w>
be h
pre s
chang es</w>
it able</w>
show ed</w>
sh ou
t on</w>
lim ited</w>
tit ude</w>
e d.</w>
sing ing</w>
ba g</w>
si ze</w>
ow s</w>
low er</w>
coo ked</w>
bi ke</w>
t ory</w>
che ap</w>
J une</w>
1 2
confi dence</w>
ti re
bl ood</w>
sh o
re di
recei ve</w>
conveni ent</w>
log ical</w>
O N
N u
fre qu
de ath</w>
ce ll</w>
meth od</w>
f it</w>
sh r
expe c
h ol
pa id</w>
chang ing</w>
ther more</w>
profe ssion
gra mma
ri ch</w>
bi ggest</w>
sy cho
sc re
volun te
dou b
k it
li ed</w>
be ach</w>
F ort
u si
pre pared</w>
beha vi
sa fe</w>
s er</w>
rec ent</w>
on d</w>
ne ar
ic ken</w>
l ap
we ird</w>
e at
impre ssed</w>
b it
F a
introduc ed</w>
mo ving</w>
beh ind</w>
accoun t</w>
b ad
mach ine</w>
progra ms</w>
provi de</w>
b read</w>
ici al</w>
er r
drea ms</w>
co sts</w>
G o
hur t</w>
wind ow</w>
japan ese</w>
vel s</w>
ri ver</w>
mi s
p ra
va il
some where</w>
r om
phra ses</w>
vi sion</w>
scen e</w>
ur a</w>
studi es</w>
ch e</w>
ca tions</w>
tic ket</w>
it ali
c ell
1 5
do cu
immedi ately</w>
w ine</w>
ani me</w>
underst anding</w>
star ts</w>
vic es</w>
now .</w>
200 8</w>
g es</w>
o' clock</w>
d ry</w>
p id</w>
th ous
W ould</w>
er ous</w>
Wh ere</w>
lea d</w>
ent y</w>
a i</w>
.... ....
or dered</w>
st and
pre fecture</w>
tex t
artic les</w>
ti al</w>
sh ort
est s</w>
19 9
tit les</w>
B ut
sa u
nega tive</w>
or ed</w>
, so</w>
L a
gar den</w>
mat ch</w>
s n
colleag ues</w>
enjo ying</w>
sc ap
at ter
Eng land</w>
atmo sphere</w>
as su
hu m
n on-
pain ting</w>
self -
d les</w>
est ed</w>
no tice</w>
e e
ic es</w>
ba th
chil d
fig ure</w>
af fec
fin anci
medic ine</w>
memor y</w>
d ness</w>
reco gni
te sts</w>
de ep
correc tion</w>
appe ared</w>
work er</w>
su gges
la zy</w>
j i
w a</w>
re min
Japan .</w>
prop ri
answ ered</w>
s /
ur y</w>
ca mp
priv ate</w>
H el
al y
in ci
lu ck</w>
no vel</w>
T wo</w>
U K</w>
T E
ev ents</w>
moder n</w>
qu it</w>
spo ke</w>
har dly</w>
ac ross</w>
lea ves</w>
F i
some body</w>
or ted</w>
comple te</w>
feel s</w>
year -
ty pes</w>
re qui
v ation</w>
t ar
respe ct</w>
k .</w>
ap propri
me at</w>
d on
g ol
le ep</w>
s ort</w>
gre at
you .</w>
pa ir</w>
re memb
pro duct</w>
com ment</w>
sen ior</w>
u mb
gh ts</w>
he at</w>
ad m
glo bal</w>
ra ce</w>
do gs</w>
G ener
he ad
ff ic</w>
experi enced</w>
T r
s se
prac tic
partic ular</w>
m ang
con tribu
disappoin ted</w>
crow ded</w>
experi ences</w>
descri be</w>
d om
spi ri
H ir
nu mb
d or
form al</w>
g ner</w>
ti z
pre ss
no body</w>
flu ently</w>
stor es</w>
h an
ac cording</w>
G oo
continu ed</w>
like ly</w>
se par
ser ved</w>
rea son
Ti me</w>
w ar</w>
guit ar</w>
Fur thermore</w>
t ary</w>
ch .</w>
dol l
electri c</w>
stu pid</w>
dr u
ho st</w>
la u
pi ano</w>
uni que</w>
atu res</w>
adver ti
cur ry</w>
t ro
Fort unately</w>
st age</w>
s qu
gen etic</w>
Jan uary</w>
st ate</w>
ex tre
ro le</w>
rela x</w>
fe male</w>
ic ally</w>
camer a</w>
C ol
dar k</w>
S i
an no
in a</w>
t at
in -
Y or
d om</w>
ac tivity</w>
fami lies</w>
re turned</w>
simp ly</w>
f an</w>
sour ces</w>
l an
s ks</w>
an noun
se qu
ne t
him self</w>
G i
1 8
uni versi
si tting</w>
p ap
en .</w>
ho l</w>
travel ing</w>
D a
inv ol
a vail
dang erous</w>
devel op</w>
prop er</w>
sc ared</w>
se ll</w>
ch icken</w>
smar t</w>
ty phoon</w>
DV D</w>
restaur ants</w>
s low
consi dered</w>
adv an
b rain</w>
su gg
adv ance</w>
B u
E L
c el
t ree</w>
imp ossi
F or
shi ps</w>
g er
e qui
ly ri
cl ou
ha te
ou se</w>
m er</w>
____ ____
cre ate</w>
W </w>
F ace
g le</w>
basi c</w>
de ter
g a</w>
ima ge</w>
sci enti
pas s
lo vely</w>
wor th</w>
De ce
S outh</w>
r ules</w>
help ful</w>
S pr
1 8</w>
si dent</w>
fan ta
se cre
M ore</w>
di sea
m ood</w>
& feature</w>
memor ies</w>
ci es</w>
tra ffic</w>
O R
happ ens</w>
x ing</w>
mil k</w>
increa sing</w>
A S
- 8
du le</w>
b an
gni fic
h h
radi o</w>
ter ms</w>
d ent
H T
A T
c ru
com e
p sycho
ver s</w>
tw are</w>
k o
ap o
y ment</w>
Un ited</w>
car ds</w>
atten ded</w>
ef fect</w>
de crea
stri ct</w>
pic k</w>
spo ken</w>
i ld</w>
in stance</w>
gradu ated</w>
as leep</w>
op e
Se con
F L</w>
au tumn</w>
di e</w>
solu tion</w>
c ally</w>
lett ers</w>
is land</w>
. j
ul arly</w>
in y</w>
wh ose</w>
fe ver</w>
iP hone</w>
Eur ope</w>
p an
ordin ary</w>
prepar ing</w>
journ als</w>
No te</w>
A M</w>
se me
c op
j a
achi eve</w>
no te</w>
lau gh</w>
introduc tion</w>
shoc ked</w>
ou ri
effec tive</w>
Su mmer</w>
mil lion</w>
ac cept</w>
ad ded</w>
bi es</w>
mar ri
aw k
b ow
ent ered</w>
alco hol</w>
L o
n oun</w>
s op
L ong</w>
age ment</w>
reac tor</w>
m on</w>
suc ce
ing u
ima gin
deci sion</w>
D is
profession al</w>
gg ing</w>
n ur
qu o
ex ha
k an
impossi ble</w>
Dece mber</w>
profess or</w>
B a
br u
con stru
at ta
Fe stival</w>
Face book</w>
m ally</w>
le g
financi al</w>
y ,</w>
bu ild</w>
de st</w>
bro ke</w>
su al</w>
foc us</w>
E N
keep ing</w>
de ep</w>
cre ated</w>
play ers</w>
wi de</w>
engine ering</w>
prop er
cat s</w>
su mm
ent u
A K
wea k</w>
y aki</w>
ster n</w>
p .
ci ties</w>
l and
at ory</w>
z u
plan e</w>
ro ck</w>
rea ch</w>
suc cess</w>
ph ones</w>
Bo th</w>
prom o
it self</w>
a ca
hon est</w>
all s</w>
natur al.</w>
el s</w>
f le
2 5</w>
thing .</w>
On ce</w>
impro ving</w>
reli gi
wh enever</w>
sof tware</w>
disea se</w>
spe ed</w>
clo sed</w>
E ar
Per haps</w>
stan ding</w>
bo tt
requ ired</w>
avail able</w>
d ne
appropri ate</w>
physi cal</w>
co ver</w>
buil t</w>
impro ved</w>
poli ce</w>
si gn</w>
b il
se at</w>
progre ss</w>
ke tball</w>
cul tures</w>
s en</w>
newsp aper</w>
se as</w>
Spr ing</w>
r oun
me ly</w>
ac qu
W ri
X D</w>
hate ver</w>
str ang
fire works</w>
employe es</w>
on ic</w>
v e.</w>
s y</w>
reac tors</w>
rela tives</w>
noo dles</w>
gu i
ex plan
ci tiz
re duce</w>
l ines</w>
medi a</w>
o il</w>
rele ased</w>
D s</w>
tow ards</w>
l la
W in
po e
ent er
examp les</w>
fur ther</w>
press ure</w>
hou ses</w>
buil dings</w>
mo on</w>
competi tion</w>
er ful</w>
plan ned</w>
success ful</w>
gg er</w>
C o
te e
gr ou
wh om</w>
Y ou
G r
sche dule</w>
ar ra
fi le</w>
hu mi
sau ce</w>
he si
disa ster</w>
dra w</w>
/ 0
clear ly</w>
H u
b re
Yor k</w>
goo ds</w>
fil led</w>
in de
TOE FL</w>
cont ent</w>
o d
off er</w>
ur ed</w>
n d</w>
wa i
mi ssion</w>
be tt
ri </w>
ver age</w>
St ar
all ow</w>
tech n
issu es</w>
ma th</w>
any way</w>
1 3</w>
Americ ans</w>
e k</w>
cla ssi
sme ll</w>
1 6</w>
I ts</w>
L u
st ate
e mail</w>
gradu ation</w>
foo tball</w>
sh e
seme ster</w>
in ation</w>
uni ties</w>
he ar
L O
x i</w>
condi tion
On ly</w>
lat ely</w>
4 th</w>
hob bies</w>
ac tor</w>
beau ty</w>
No wadays</w>
as pe
cul tural</w>
grow ing</w>
bor ed</w>
char ge</w>
bo ys</w>
room s</w>
t ..</w>
b ly</w>
sp r
mid night</w>
lyri cs</w>
celebr ate</w>
en e
ex hi
sur vi
de ad</w>
T wi
ear th</w>
sk in</w>
dri ver</w>
F ir
a we
ak a
j ud
V HT
lec ted</w>
dan cing</w>
b ank</w>
2 4</w>
O kin
' .</w>
1 4</w>
k y</w>
Ital ian</w>
st ered</w>
3 r
2 5
there fore</w>
n t</w>
main ly</w>
St ates</w>
Nu clear</w>
pp ed</w>
se con
dr unk</w>
ara oke</w>
bu ying</w>
i so
ent .</w>
E S
per fec
m ic
so ft</w>
sal es</w>
air port</w>
.com /
se ven</w>
year- old</w>
ag re
e ts</w>
ear n</w>
ci al</w>
M an
seri ously</w>
di stance</w>
tot al</w>
t an
su itable</w>
m us
com ic</w>
struc ture</w>
day ,I</w>
VHT R</w>
la un
form er</w>
P ER
p ool</w>
exha u
lo ves</w>
fashi on</w>
H </w>
@ </w>
ve ment</w>
s -
concent rate</w>
regre t</w>
individu al</w>
correc ting</w>
Y o
gi ft</w>
po st
k ai
wa ter
assi gn
flow er</w>
bas ketball</w>
cap ital</w>
Na tional</w>
P hi
Secon dly</w>
opport unities</w>
H ey</w>
th ir
our selves</w>
br uary</w>
si gnific
etc .</w>
neigh b
in t</w>
re sear
B ud
trans lated</w>
V al
practic ing</w>
well -
c ow
sk y
an aly
over seas</w>
allow ed</w>
se curi
recomm ended</w>
C or
gradu ally</w>
sub jects</w>
auth or</w>
T ra
fri ed</w>
eat en</w>
inv ited</w>
L IN
oun ds</w>
S choo
in stru
prev ent</w>
reg ular</w>
i a</w>
ri sk</w>
tt ed</w>
P r
view s</w>
yest er
b ag
ec es</w>
P ri
opini ons</w>
c ro
2 nd</w>
degre es</w>
app ly</w>
ma g
i di
t our</w>
smo king</w>
care er</w>
en ge</w>
1 6
op po
sour ce</w>
ca ses</w>
direc tly</w>
tr a</w>
Fe bruary</w>
di al
mor n
rep ly</w>
3r d</w>
ar gu
ok a</w>
lon ely</w>
Li fe</w>
tion ally</w>
rememb ered</w>
the less</w>
tee th</w>
re ci
Inter national</w>
an xi
Y u
Th ose</w>
gy m</w>
per for
kil led</w>
commun ity</w>
s a</w>
fla v
te mple</w>
awe some</w>
b ul
f ire</w>
top ics</w>
Li ke</w>
eng th</w>
materi als</w>
B B
correc tly</w>
y ell
suff ering</w>
effec ts</w>
develop ing</w>
G ra
child hood</w>
om e
ki ll</w>
tre at
lea ving</w>
ther .</w>
pres ents</w>
.j p</w>
il lu
as king</w>
hi stor
stru gg
slow ly</w>
uk i</w>
vari ety</w>
d ,</w>
con text</w>
impre ssion</w>
wa y.</w>
depre ssed</w>
sing er</w>
i gn
on to</w>
jec tive</w>
mi ssed</w>
/ /
g ing</w>
d ata</w>
J </w>
at titude</w>
wel come</w>
an ti
the ater</w>
H Y
pe t</w>
war ds</w>
lear ners</w>
cap itali
ha ir
us ers</w>
ou l</w>
hea da
g ar</w>
lo ad</w>
well .</w>
ha bit</w>
h ang</w>
ab solu
fa iled</w>
m bo
l o</w>
W est
Asi an</w>
extre mely</w>
A M
un less</w>
In stead</w>
n al</w>
numb ers</w>
frequ ently</w>
1 3
m outh</w>
custom er</w>
per haps</w>
surpri se</w>
indu stry</w>
ty pic
pi eces</w>
li e</w>
elec tr
g ri
k m</w>
, ,
mang a</w>
f ly</w>
fi f
jo b
R E
H ok
vi a</w>
for ce</w>
C D</w>
emb arra
fi cation</w>
curr ently</w>
ar m</w>
y es</w>
f o
O N</w>
sp or
sub titles</w>
ep iso
lic ated</w>
s w
1 00
Eur ope
a tive</w>
sh y</w>
fi ght</w>
o ds</w>
I s
the me</w>
benef its</w>
ge st</w>
Fr ance</w>
grand mother</w>
appli cation</w>
st le</w>
depen ds</w>
ac y</w>
★ </w>
1 7</w>
securi ty</w>
appe ar</w>
g ent
f at</w>
si ght</w>
' I</w>
d s.</w>
g ry</w>
S en
behavi or</w>
te .</w>
si ght
situ ations</w>
concer ned</w>
part ner</w>
grow th</w>
se ction</w>
in k
deep ly</w>
vi ol
e en</w>
mar k</w>
man ager</w>
a mb
stom ach</w>
includ e</w>
ru le</w>
entu ally</w>
sm oo
c king</w>
scre en</w>
C ity</w>
LIN K</w>
A pp
vi ously</w>
Schoo l</w>
vi l</w>
emp ha
la tions</w>
exc ell
-------------------------------- --------------------------------
HY PER
HYPER LINK</w>
lec ture</w>
ur ch</w>
ing ly</w>
ey e</w>
com </w>
swee ts</w>
gramma tically</w>
doll ars</w>
chall eng
rela xed</w>
M ac
ligh tly</w>
t le</w>
R F
a verage</w>
draw ing</w>
6 0</w>
gla sses</w>
B us
for d</w>
W a
bir th</w>
te lling</w>
er s.</w>
Ger many</w>
al bu
car efully</w>
G e
val ue</w>
me als</w>
s al</w>
ei j
Vi et
Sh ould</w>
too .</w>
si on
comp licated</w>
fac ili
recor d</w>
hun gry</w>
We dne
every where</w>
dr op</w>
conveni ence</w>
cha tting</w>
pla ys</w>
ha i</w>
no se</w>
visi ting</w>
gh t.</w>
cir cu
ni ght
si gn
vi lla
z a</w>
near by</w>
ch in
on ed</w>
I S
P u
a ds</w>
thous and</w>
y ama</w>
muse um</w>
mess ages</w>
No ve
a di
s ...</w>
p ac
help ing</w>
st at
volunte er</w>
N O
conne ct</w>
chall enge</w>
200 7</w>
off ic
marri age</w>
di aries</w>
ad ing</w>
le ct</w>
or ing</w>
dra mas</w>
qu ali
car ry</w>
re ma
be long</w>
or ies</w>
flu </w>
tom a
a -
ok o
dem ic</w>
pl es</w>
x es</w>
ite ms</w>
fa ir</w>
Okin awa</w>
s cor
T ake</w>
Th ur
ser vices</w>
ing redi
magaz ine</w>
charac ter
u ss</w>
t ch</w>
shr ine</w>
grou ps</w>
e ver
ar y.</w>
sha pe</w>
minu te</w>
val u
p ed</w>
f light</w>
, we</w>
I C
H on
r ying</w>
con v
enti al</w>
se c
B ye</w>
, the</w>
ad vi
ow ner</w>
U R
fanta stic</w>
Hok kai
i denti
cu st
m o</w>
super market</w>
ne arly</w>
pr oud</w>
ha ha
tra ins</w>
Jo h
cal m</w>
m ur
prote ct</w>
wonder ed</w>
hesi t
a a
Japane se
Russi a</w>
re sources</w>
k id</w>
er ence</w>
Tu es
la w
sy mp
conversa tions</w>
c ry</w>
vide os</w>
1 7
m ir
scap e</w>
M ic
r ar
na tion</w>
any where</w>
qui et</w>
he aring</w>
bo ar
w all</w>
t ent</w>
regi stered</w>
ca kes</w>
us age</w>
pic ked</w>
Indi a</w>
deta ils</w>
ther n</w>
w hatever</w>
c in
mi li
strong ly</w>
wi lling</w>
b ud
o .</w>
poli cy</w>
thr ough
graph y</w>
sur roun
pati ent</w>
H an
om i
thi s.</w>
Y a
excell ent</w>
M e</w>
West er
rain ed</w>
butt on</w>
exhau sted</w>
ther e.</w>
M c
2 1</w>
RF ID</w>
difficul ty</w>
si ons</w>
me l
f ing
man agement</w>
il ing</w>
work .</w>
no vels</w>
sun ami</w>
K ong</w>
that .</w>
n e</w>
O r
degre e</w>
colleag ue</w>
ani mation</w>
Lang u
min ation</w>
s at</w>
gener ally</w>
st ant</w>
for ever</w>
up set</w>
f ts</w>
U N
po ten
rea ched</w>
D o
st o
W at
doub t</w>
expla ined</w>
car to
th us</w>
Nove mber</w>
dr ed</w>
W ow</w>
P i
coun tr
comm erci
trou b
wor e</w>
bett er.</w>
underst and
A N</w>
h ang
R ight</w>
De ar</w>
temp or
te en</w>
as soci
man age</w>
mo stly</w>
8 0</w>
attra ctive</w>
di et</w>
influ ence</w>
om e</w>
lic ense</w>
adul ts</w>
A L
hum ans</w>
Wi ll</w>
T on
in dic
, it</w>
i m</w>
cr ying</w>
Te ch
r en
Qu es
1 9</w>
mean ings</w>
O M
ad dress</w>
mu m</w>
Y ea
memori ze</w>
motiv ation</w>
f oun
I T</w>
tic kets</w>
1 .
fi x</w>
pleas ant</w>
compu ters</w>
r ough</w>
sur f
P a
sc ener
al ternative</w>
stra tion</w>
2 2</w>
appe ar
Hokkai do</w>
stand ard</w>
G ol
ch er</w>
re ality</w>
awk ward</w>
r are</w>
e qu
pati ents</w>
ex tra</w>
person ality</w>
sup pose</w>
r ent</w>
enti re</w>
forei gner</w>
reli eved</w>
Bud d
poli cies</w>
te sting</w>
5 0
nor mally</w>
R ef
ani mal</w>
se min
an ces</w>
ch en</w>
syste ms</w>
ver theless</w>
Th ree</w>
c ycle</w>
D on
ar ch
H ong</w>
s low</w>
g as</w>
ar a</w>
t s.</w>
y er</w>
prac ticed</w>
clean ing</w>
C la
at su
man u
ea se</w>
ligh ts</w>
par ent</w>
qu ar
heada che</w>
re view</w>
hun dred</w>
B ra
da tion</w>
bi gger</w>
ca sual</w>
disc uss</w>
fe ar</w>
te en
pla ced</w>
un fortunately</w>
lab or
de sk</w>
ll a</w>
ri ding</w>
Twi tter</w>
S te
no wadays</w>
N ew
in depen
la dy</w>
ent ine</w>
de cor
♪ </w>
com par
kan ji</w>
wa sh</w>
di g
wri ter</w>
rar ely</w>
some how</w>
pre sident</w>
the sis</w>
shir t</w>
Fir stly</w>
foo t</w>
di r
tran spor
ra men</w>
N ago
J e
go als</w>
cow or
wor st</w>
Se oul</w>
Y oko
fav ouri
responsi bility</w>
I V</w>
for ms</w>
n or</w>
Europe an</w>
S ud
drin ks</w>
gla ss</w>
re duc
fin ding</w>
sp read</w>
ac cent</w>
P la
day s.</w>
tele vision</w>
umb re
ak u
st ro
sugg ested</w>
di a</w>
shou l
Goo gle</w>
ad ed</w>
-------- ----
in si
che aper</w>
C he
su it</w>
an ce
lap top</w>
citiz ens</w>
T -
constru ction</w>
com mon
l oud</w>
cust om</w>
vic ti
sh ower</w>
l ls</w>
to day
absolu tely</w>
b ing</w>
imp lies</w>
ir y</w>
thr ow</w>
Sh ang
Wedne sday</w>
th ro
oppo site</w>
2 3</w>
materi al</w>
in tel
ag e.</w>
rea m</w>
tow ard</w>
In tro
sal ary</w>
a king</w>
in sp
st -
E ach</w>
Tai wan
ch urch</w>
sing ular</w>
man aged</w>
l ying</w>
enjo y
swi m</w>
increa sed</w>
tra ck</w>
oc ca
favouri te</w>
s lightly</w>
col lec
D ra
mp i
mili tary</w>
est ab
i ther</w>
tast y</w>
appli ed</w>
year .</w>
Thur sday</w>
advan ced</w>
C up</w>
all er</w>
Tha il
P M</w>
st ar</w>
kin der
men tion</w>
dr opped</w>
Hir o
sky pe</w>
beli ev
L ove</w>
explan ation</w>
Tha i</w>
perfec tly</w>
mode l</w>
C ar
re st
dama ge</w>
b right</w>
se ly</w>
su ggest</w>
fu el</w>
Some one</w>
e ment</w>
s ang</w>
Wh enever</w>
peop le.</w>
sight seeing</w>
tre at</w>
answ ers</w>
typic al</w>
over come</w>
effor ts</w>
aca demic</w>
bi o
hun ting</w>
B eij
requi res</w>
le y</w>
war ming</w>
M ini
too l</w>
com ics</w>
u ti
tur ning</w>
O O
r ound</w>
reason able</w>
ac cess</w>
regi on</w>
sh own</w>
state ment</w>
in f
ss .</w>
tion s.</w>
H ence</w>
pp er</w>
a tion.</w>
sh el
dro ve</w>
G a
ha ma</w>
ei ght</w>
atta ched</w>
ga ther
b y
f ro
dis covered</w>
exhi bi
tain ly</w>
pr ay</w>
S ur
Nago ya</w>
d ont</w>
we t</w>
fre sh
b its</w>
p ing</w>
vol u
benef it</w>
Tues day</w>
S .</w>
da d</w>
ath on</w>
scener y</w>
te a
po sted</w>
sa i
hel lo</w>
universi ties</w>
Val entine</w>
po l
fi ll</w>
st ars</w>
pro duce</w>
in correct</w>
import ance</w>
yell ow</w>
or i</w>
ari ly</w>
difficul ties</w>
through out</w>
Har ry</w>
m all</w>
wa ited</w>
arr ang
un ch</w>
logi es</w>
V ery</w>
h ere
ta sk</w>
O k
de spite</w>
kit chen</w>
mo di
particip ate</w>
t y.</w>
stitu te</w>
Al ternative</w>
touri sts</w>
treat ment</w>
c yc
jo ke</w>
p tion</w>
pro cess
advant ages</w>
ple ased</w>
al u
my st
tom orrow
fac e
adul t</w>
sur ance</w>
natur ally</w>
musi cal</w>
pro ce
y ...</w>
high ly</w>
poli te</w>
p ot</w>
be ar</w>
arri ve</w>
moun tains</w>
adverti se
text book</w>
o li
w ood</w>
fi el
condi tions</w>
st ea
laugh ed</w>
pu tting</w>
ear ning</w>
sh oo
ce ment</w>
be ef</w>
Yea h</w>
again .</w>
ri d</w>
ing ..</w>
fun ction</w>
tel ls</w>
happ ening</w>
J a
confi dent</w>
pe ace</w>
affec ted</w>
k ore
per cent</w>
Thail and</w>
ref er</w>
l ou
ex ic
te ars</w>
ma ils</w>
fu </w>
fa ster</w>
poten tial</w>
mul ti
sal t</w>
C ur
Fuku shima</w>
e ye
par ties</w>
p op</w>
fac tors</w>
oper ation</w>
Y O
H A
mi ssing</w>
A f
ca uses</w>
U se</w>
ac ks</w>
up on</w>
ton gue</w>
musi ci
G o</w>
transpor tation</w>
mar ks</w>
se x
19 8
de b
tast es</w>
inter pre
t an</w>
Al most</w>
thin ks</w>
cour ses</w>
A fri
ta sted</w>
ture .</w>
meth ods</w>
g .</w>
gen cy</w>
earthqu a
T ry</w>
rep lied</w>
daugh ters</w>
p d
mo tor
sl ang</w>
M al
cou s
tt e</w>
m m</w>
it ec
d ney</w>
we stern</w>
albu m</w>
c ried</w>
gre w</w>
pleas ure</w>
kinder gar
th s</w>
v or
friend s.</w>
Asi a</w>
su res</w>
Chi l
fil ms</w>
accep ted</w>
high -
e mer
fa il
Nor th</w>
M exic
Par k</w>
lat est</w>
bir d</w>
strong er</w>
c ked</w>
s ore</w>
clou dy</w>
O ly
200 4</w>
to -
bus ine
smo ke</w>
self .</w>
is ing</w>
200 5</w>
zz </w>
f our
Ha wai
includ es</w>
p ul
schoo l.</w>
li pp
schoo l
Beij ing</w>
Shang hai</w>
O ther</w>
br and</w>
en ess</w>
ac tions</w>
ne l</w>
pri ces</w>
acci dents</w>
any body</w>
in ve
al ing</w>
ab s
C ha
e th
sp er
jap an</w>
liter ature</w>
ing -
str ate
solu tions</w>
ri se</w>
sur g
invol ved</w>
senten ce
abili ties</w>
Wri ting</w>
spea ks</w>
hand le</w>
life .</w>
col ors</w>
fall ing</w>
sub way</w>
ingredi ents</w>
anci ent</w>
ad dic
pre cious</w>
ment .</w>
curi ous</w>
gg ed</w>
sugges tion</w>
Z eal
t sunami</w>
A gain</w>
hi </w>
th .</w>
sing ly</w>
gui de</w>
, my</w>
fi gh
ju mp
z es</w>
chan ces</w>
stan ces</w>
ki pe
S ci
al d</w>
eg g</w>
sel ling</w>
lead er</w>
laugh ing</w>
it ting</w>
correc t.</w>
follow s</w>
engine ers</w>
B e</w>
announ ced</w>
Every thing</w>
Langu age</w>
ve ill
cent ury</w>
hea vi
sc ary</w>
pow erful</w>
fac tory</w>
pronoun ce</w>
Oly mp
E v
Ne vertheless</w>
n ap</w>
ag ue</w>
H ol
l ink</w>
fe et</w>
d ant</w>
er t</w>
P S</w>
to i
ti </w>
bru sh</w>
apo logi
s an</w>
y u</w>
fa ul
all .</w>
dest ro
beli eved</w>
audi ence</w>
I mp
be t</w>
goo d.</w>
thro at</w>
chin ese</w>
ra ise</w>
off icial</w>
Yoko hama</w>
st y</w>
1 4
se x</w>
le gs</w>
ta sks</w>
it y.</w>
her self</w>
cha ir</w>
impre ssive</w>
occur red</w>
re ve
pur cha
produc tion</w>
for ced</w>
d less</w>
enjoy able</w>
n ic
fru it</w>
stra ight</w>
sh ar
hi m.</w>
semin ar</w>
pro file</w>
T ea
Sud denly</w>
Wi th
b age</w>
t ment</w>
proper ly</w>
spe lling</w>
or ter</w>
K e
high est</w>
ac tors</w>
com mu
ro de</w>
T S</w>
signific ant</w>
por k</w>
be at</w>
circu m
ro b
m al
imp le
Wester n</w>
f are</w>
advant age</w>
200 6</w>
poli tical</w>
tech ni
aw are</w>
cri sis</w>
- year-old</w>
7 0</w>
con cept</w>
the ma
tw enty</w>
sal e</w>
L ately</w>
de p
denti st</w>
er -
a h</w>
ref ers</w>
sen si
T or
mean ing
c t
re d
j e
bir ds</w>
hor ri
g en</w>
prom ised</w>
I M
fru str
c ab
on e-
y .
ess ential</w>
org /
Indi an</w>
Hi gh</w>
p ages</w>
m ary</w>
effici ent</w>
be d
fac es</w>
veill ance</w>
ou t.</w>
jo gging</w>
conne cted</w>
p hi
rela xing</w>
encoura ge</w>
secre t</w>
in king</w>
uk u</w>
sa ke</w>
go d</w>
main tain</w>
humi d</w>
h ic
M t</w>
pro f
3 D</w>
clo ser</w>
Spe aking</w>
j un
00 0
Can adi
Gol den</w>
ta x</w>
emplo yment</w>
back ground</w>
mor e
T ur
men u</w>
f ans</w>
m ers</w>
cont ents</w>
allow s</w>
can cer</w>
in o</w>
fort un
rea d
r oo
co- workers</w>
eg gs</w>
de ca
ic y</w>
fe sti
sh ine</w>
Zeal and</w>
d v
surf ing</w>
G en
si de
un comfortable</w>
Japane se.</w>
tur ns</w>
L it
H e
b on</w>
exi st</w>
br an
lim it</w>
in surance</w>
b orrow
su gar</w>
fl at</w>
G ir
yester day.</w>
relation ships</w>
e di
TH E</w>
inv est
Ex a
f as
umbre lla</w>
ent al</w>
wa shing</w>
in struc
fe atures</w>
no te
s and
un usual</w>
villa ge</w>
et ings</w>
pap ers</w>
re fre
gol f</w>
U sing</w>
S N
follow ed</w>
an .</w>
mi xed</w>
ver bs</w>
techno logies</w>
bott om</w>
9 0</w>
.... ..</w>
af ford</w>
ke .</w>
for gotten</w>
Gre at</w>
g ate</w>
character is
flu ent</w>
be ans</w>
pi zz
lo sing</w>
mon o</w>
cor ner</w>
Kore ans</w>
App le</w>
y ers</w>
Phi lipp
H ope</w>
arti st</w>
ga ined</w>
g ers</w>
exhibi tion</w>
p ink</w>
X X
suff ici
at ors</w>
l en
e ars</w>
Taiwan ese</w>
mar ke
as se
ac c
op ening</w>
2 9</w>
com pre
br ings</w>
Some thing</w>
valu able</w>
W ell
r an
spiri t</w>
dir ty</w>
stic k</w>
appear ance</w>
ck et</w>
y ,I</w>
Chil dren</w>
produc ed</w>
V an
th ank
rep orted</w>
or .</w>
coun ter</w>
de f
k araoke</w>
sup er</w>
dig ital</w>
equi p
refer ring</w>
radi ation</w>
aspe cts</w>
conf ir
recogni ze</w>
requ ire</w>
disp lay</w>
in .</w>
ow ever
broad ca
direc t</w>
clean ed</w>
ali ve</w>
twi tter</w>
O ri
ach es</w>
fa il</w>
ni a</w>
cl in
possi bility</w>
blossom </w>
desi gned</w>
an tly</w>
Fu ji</w>
in come</w>
hol ding</w>
arch itec
comple x</w>
Par ty</w>
d ,
we ak
radi o
it a</w>
Joh n</w>
att le</w>
O h
ver s
om en
To day,I</w>
p en</w>
rain s</w>
r ude</w>
3 .
lo ss</w>
tr ust</w>
cri tici
boar ding</w>
DV Ds</w>
c ki
Ques tion</w>
con tains</w>
clo thing</w>
mb ur
comb ine</w>
si a</w>
Sy dney</w>
le -
na tion
r ab
/ her</w>
Intro duc
Ital y</w>
leg al</w>
sear ching</w>
w oo
sm aller</w>
prom ise</w>
2 .
p ack
tu be</w>
ul ar
Hel p</w>
so y</w>
ce an</w>
suff er</w>
speci ali
bu t
pa ce</w>
g ro
I K
su rely</w>
g or
ca tional</w>
M usi
o h</w>
re .</w>
concer n</w>
lo sop
O K
pri ority</w>
neigh bor
pol lu
amb i
4 5</w>
psycho logy</w>
p atter
Ton ight</w>
S ha
bo ttle</w>
d y
Po tter</w>
L earning</w>
kindergar ten</w>
pas sing</w>
4 0
wa it
exp lo
coo per
h all</w>
ir o</w>
tou ched</w>
requ est</w>
err ors</w>
bo iled</w>
ver se</w>
desi re</w>
individu als</w>
lang -8
ph en
Un til</w>
tempor ary</w>
i sh</w>
ser vation</w>
ro ll</w>
ai m</w>
en -
come dy</w>
episo de</w>
. '</w>
English -
en th
anxi ous</w>
un able</w>
pri mary</w>
repe at</w>
pain ful</w>
br ow
fi xed</w>
ate ful</w>
Su ch</w>
est ly</w>
be ings</w>
Re ading</w>
ac cur
b an</w>
lo aded</w>
bath room</w>
contra st</w>
surg ery</w>
2 8</w>
C H
p ity</w>
no is
web sites</w>
E R</w>
d ...</w>
ta xi</w>
docu ments</w>
dor mit
ta tions</w>
friend ship</w>
bal ance</w>
ra ised</w>
remin ds</w>
prac ti
2 6</w>
Dis ney</w>
er ences</w>
u m
electr onic</w>
gr own</w>
survi ve</w>
we st</w>
y o</w>
h en
Tech no
l ating</w>
t our
u ri
rela tively</w>
app ed</w>
A m</w>
to .</w>
al -
sh all</w>
str ength</w>
tit led</w>
Chri sti
t un
rec over</w>
a. m.</w>
consider ing</w>
TO </w>
assign ment</w>
r ow</w>
deter min
- up</w>
th in</w>
sear ched</w>
mar ry</w>
fore cast</w>
ev entually</w>
dis agree</w>
bu cks</w>
facili ties</w>
ed om</w>
responsi ble</w>
ar gue</w>
Hawai i</w>
ch an</w>
prop o
g as
che er</w>
un t</w>
ir ri
go v
With out</w>
ac u
U .
know ing</w>
hom e.</w>
remin ded</w>
er a</w>
cep tion</w>
ve hic
lo cation</w>
p il
T ri
mu ch.</w>
jour ney</w>
mit ted</w>
assu me</w>
Be st</w>
i er</w>
class mate</w>
M other</w>
M in
her o</w>
religi on</w>
or al</w>
cl er
K in
S an</w>
Cor rec
histor ical</w>
na me
sh ot</w>
tele phone</w>
fas cin
interest s</w>
con duc
discus sion</w>
f -
u ms</w>
ke y
2 7
iP ad</w>
techn ical</w>
i st</w>
b on
cer tainly</w>
c o</w>
sol ved</w>
sp ot</w>
c ting</w>
T al
---- </w>
5 00</w>
p ha
direc tor</w>
2 9
sever e</w>
☆ </w>
re tire
Budd hi
ex per
af fect</w>
Australi an</w>
ago .</w>
el der</w>
no ise</w>
A P
Every body</w>
Y ama
us er</w>
ad jective</w>
wa ve</w>
stre ets</w>
tre ated</w>
po sse
od d</w>
victi ms</w>
C E
di d
ca stle</w>
includ ed</w>
cir cle</w>
dre w</w>
lig ent</w>
sal on</w>
cli ck</w>
ma ss
De spite</w>
gr ateful</w>
cki ly</w>
ad ap
cha tted</w>
an tic</w>
li shed</w>
fre e
ab </w>
fini shing</w>
posi tions</w>
st one</w>
f lies</w>
Kan ji</w>
Com ment</w>
me ters</w>
emp ty</w>
wri t
l in
ter na
oo king</w>
p .</w>
A ma
prac tical</w>
all ed</w>
st ood</w>
yc les</w>
jo y</w>
Bra z
L E
condition er</w>
achi ev
effici ency</w>
ap ers</w>
ac comp
ch est
B ir
dis like</w>
provi ded</w>
m it</w>
snow ing</w>
fiel ds</w>
goo d
appe ars</w>
n am</w>
coun t</w>
pas sion</w>
discus sed</w>
bow l</w>
stan tly</w>
ta ining</w>
imp act</w>
enth usi
borrow ed</w>
ide al</w>
stu ff
conf erence</w>
up .</w>
- in-
E -
un g</w>
con test</w>
sa y.</w>
sp are</w>
sur veillance</w>
inno va
l li
pre fer
di scri
show ing</w>
manu fac
health care</w>
da i</w>
chec king</w>
face book</w>
Ha ving</w>
mor e.</w>
wi de
a k</w>
de c
2 6
phen omen
mar athon</w>
climb ing</w>
prin ci
ou s.</w>
Tu be</w>
B ar
pre ss</w>
Van cou
common ly</w>
deta il</w>
class room</w>
iP od</w>
pa st
ag ers</w>
lat ter</w>
y ond</w>
ni vers
a st
scen es</w>
ven tion</w>
ing ,</w>
br own</w>
desi gn
dra ma
2 00</w>
ev alu
Par is</w>
e duc
si ty</w>
blo om</w>
ad op
th ly</w>
all er
pd f</w>
A ng
stre ssed</w>
co- worker</w>
f low</w>
2 8
disp la
off ered</w>
ex </w>
ni ght.</w>
grap h</w>
us .</w>
Tr ans
publi shed</w>
W al
é </w>
pe i</w>
rec over
ac ting</w>
le ts</w>
per form</w>
har d
re lease</w>
consi sts</w>
S pain</w>
N Y</w>
v als</w>
S er
direc tion</w>
ob ject</w>
engine er</w>
ex -
dent ally</w>
oc cu
a de</w>
T y
su e</w>
succe ed</w>
ma thema
pre dic
frien d.</w>
th y</w>
separ ate</w>
call s</w>
ow ing</w>
her .</w>
travel ed</w>
at om
P art</w>
Ear th</w>
seas ons</w>
dv ant
Au tumn</w>
horri ble</w>
sa ving</w>
ite m</w>
pp ing</w>
re place</w>
ad y</w>
some what</w>
n it
Mic ha
n arr
car ried</w>
pizz a</w>
R O
app le</w>
Z </w>
n on
t al</w>
l ands</w>
col der</w>
g in</w>
n ick
A B
der ing</w>
z on</w>
H O
it ation</w>
encoura ged</w>
Fri ends</w>
i mm
cell phone</w>
e vi
g i</w>
e ager</w>
b ands</w>
IN G</w>
tar get</w>
other wise</w>
n ine</w>
comple ted</w>
d it</w>
Com e</w>
inci dent</w>
u l</w>
begin s</w>
provi des</w>
ce ssi
e li
Vancou ver</w>
M r
ra w</w>
figh ting</w>
Ko be</w>
c les</w>
dial ec
s ch
coo ki
origin ally</w>
beg un</w>
life style</w>
re -
indepen dent</w>
ac tre
i s.</w>
Canadi an</w>
ex tent</w>
ad .</w>
cri min
aw ful</w>
wi ld</w>
ant a</w>
bag s</w>
cous in</w>
pe ace
employe e</w>
wa shed</w>
p at
partic ularly</w>
di um</w>
heavi ly</w>
do .</w>
E mp
H er
room mate</w>
retire ment</w>
respon se</w>
recor ded</w>
om a</w>
dem and</w>
great ly</w>
lab </w>
rep orts</w>
enter tain
o logy</w>
2 7</w>
h our
dormit ory</w>
fre edom</w>
mo to</w>
allow een</w>
pre gn
Pro b
cer ti
M or
conf using</w>
stu ck</w>
Hiro shima</w>
t all</w>
d one
lead ing</w>
5 th</w>
ste ps</w>
depen ding</w>
, i</w>
par king</w>
E lec
d ul
m ic</w>
e scape</w>
B r
ch or
seas es</w>
coura ge</w>
embarra ssed</w>
Mc Don
wh ere
elec tion</w>
st able</w>
K u
enthusi as
hosp it
W ar</w>
r ange</w>
2 3
be an</w>
pla stic</w>
me ..</w>
gi fts</w>
sy mbo
p al
the ory</w>
car ri
gu ests</w>
p it
Micha el</w>
pa th</w>
Viet nam</w>
a tion
fac ing</w>
bud get</w>
suff ered</w>
ch ers</w>
disa dvant
t in
comp are</w>
me a
.ht m</w>
for est</w>
p un
ath le
fun ctions</w>
L ook</w>
week ends</w>
S el
or o</w>
ine .</w>
A h</w>
keep s</w>
and -
S ho
pl enty</w>
air plane</w>
te d.</w>
regar ding</w>
mat ely</w>
f ying</w>
me as
SN S</w>
b om
Philipp ines</w>
b es</w>
Prob ably</w>
E N</w>
r ou
so on
→ </w>
equip ment</w>
earthqua kes</w>
anno ying</w>
fail ure</w>
e .
or ting</w>
view ing</w>
j ac
we ap
neighbor hood</w>
T an
indu stri
poli tics</w>
blo om
ex ten
m my</w>
toi let</w>
s an
book store</w>
T ak
t iny</w>
ok o</w>
sta irs</w>
commerci al</w>
ta ined</w>
6 0
au toma
cre dit</w>
E du
fi shing</w>
We ek</w>
at temp
cha mpi
poe m</w>
b atter
b ow</w>
dama ged</w>
cho sen</w>
rea der</w>
cri me</w>
sp icy</w>
g ic</w>
ent ly
hor se</w>
I I</w>
hur ry</w>
scienti fic</w>
soun ded</w>
sou ven
appoin tment</w>
A p
I T
worl d.</w>
labor atory</w>
di seases</w>
sa i</w>
be yond</w>
t ori
h oo
T su
cor por
Di ary</w>
Th rough</w>
he ll</w>
phi losop
B el
con sequ
suffici ent</w>
E ast</w>
worl d
S wi
nu l</w>
ba se</w>
ing ,
as ha
Tai pei</w>
nivers ary</w>
z u</w>
are well</w>
mic ro
col or
contribu te</w>
basi cally</w>
g are
ri ghts</w>
ro ads</w>
camp us</w>
peace ful</w>
cra m</w>
par ag
mb le</w>
I EL
ho ku</w>
bic ycles</w>
sn acks</w>
C ali
cli mate</w>
travel ling</w>
tea ms</w>
thing s.</w>
si x
ha mbur
M y
com position</w>
too th</w>
int end</w>
magaz ines</w>
T est</w>
D ai
stud ent
thir ty</w>
lar gest</w>
O ba
I N</w>
be long
gra des</w>
troub les</w>
ca mp</w>
pa ying</w>
net work</w>
k g</w>
sa tion</w>
reg ularly</w>
grand father</w>
sa y
se tting</w>
week .</w>
H owever
examp le
Gener ation</w>
sud den</w>
da iry</w>
Be ing</w>
ju ice</w>
jud ge</w>
surpri sing</w>
g ur
some time</w>
sh op
too ls</w>
morn ing.</w>
Com m
war mer</w>
perfor med</w>
H alloween</w>
Ho li
edu cational</w>
• </w>
A i
mach ines</w>
priv acy</w>
ma ke
M S
' the</w>
W as</w>
ment ed</w>
z en</w>
che ese</w>
I S</w>
con tr
mp tion</w>
ex tra
musi c
atten ding</w>
fru its</w>
impro vement</w>
sugges tions</w>
H eal
thre w</w>
B hu
so -
Cali for
t .
pain t</w>
compla in</w>
Ch ar
adm it</w>
t rea
at el
rom antic</w>
re main</w>
mi x</w>
dist ingu
P ol
S U
la ke</w>
l d
climb </w>
li qu
great est</w>
though .</w>
al ty</w>
motiv ated</w>
sh u
th is
S tre
se lected</w>
u g
newsp apers</w>
nor th</w>
P h
noo dle</w>
and ar
gu ess
ex act</w>
trans lat
be side</w>
agre ed</w>
ing ing</w>
du ces</w>
Hel lo
pri ze</w>
swe at</w>
acqu a
Ha ha</w>
hesit ate</w>
requi re
a head</w>
ho t
/ the</w>
C u
ha bits</w>
Af ter
Win ter</w>
rap i
arti sts</w>
M ur
for e.</w>
wi shes</w>
dou ble</w>
thin k
fri ger
K ing</w>
go ld</w>
bli c</w>
er al</w>
ne ck</w>
su m</w>
wal let</w>
w ing</w>
year s.</w>
as ks</w>
trans fer</w>
A m
ac tual</w>
conne ction</w>
H ouse</w>
sol ar</w>
Ref erences</w>
si ck
li t</w>
No thing</w>
st ands</w>
Gener ally</w>
a ti
circum stances</w>
te dly</w>
mat ters</w>
kin dness</w>
sp ac
s oo
s or</w>
ob vious</w>
experi en
re present
fun ds</w>
ach e</w>
Stud ying</w>
Oba ma</w>
Musi c</w>
seas on
s mil
be fore.</w>
1 -
Y et</w>
ter ia</w>
re vi
per sons</w>
cho ices</w>
s inc
Di ff
long -
bab ies</w>
vo te</w>
tal ks</w>
ar ms</w>
sh ared</w>
. org/
fre ely</w>
bur den</w>
co at</w>
c lud
be sides</w>
D ue</w>
inno vation</w>
ar my</w>
t ap
work place</w>
r hy
tour na
wor d.</w>
coun ter
supp ly</w>
tra dition</w>
B A</w>
In done
2 4
wind ows</w>
O k</w>
irri t
t su
un known</w>
laun dry</w>
de ad
en sure</w>
teach es</w>
su s</w>
po tat
gh o
bo at</w>
ca use
c ine
K en
inj ured</w>
Eng ine
sch ol
re friger
ci gare
Is land</w>
k ne
e sti
l ly</w>
environ mental</w>
classi cal</w>
ga ther</w>
Sh in
H ak
se ssion</w>
/ she</w>
fa i
inten ded</w>
wr ong
sto ck</w>
S tu
sc ale</w>
lang-8 .com</w>
experi ment</w>
p. m.</w>
ter r
Be tter</w>
fl ying</w>
manufac tur
tru ly</w>
me d
te e</w>
sun shine</w>
flav or</w>
decrea se</w>
appro ach
3 -
broad cast</w>
secon ds</w>
k at
organi zation</w>
7 0
ski ing</w>
ne ither</w>
asha med</w>
IEL TS</w>
for mation</w>
it es</w>
smoo thly</w>
D u
inve sti
r out
trou ble
frustr ated</w>
emo tions</w>
ce l</w>
le y
ir ing</w>
com for
sc ar
th ick</w>
z h
it ted</w>
reci pe</w>
t own
faul t</w>
mon it
b erry</w>
addic ted</w>
e ded</w>
-------------------------------- ----------------
ag a</w>
S till</w>
i ll</w>
mar kets</w>
k ura</w>
nois y</w>
inc redi
P l
a unt</w>
F un
bla ck
Li st
custom s</w>
particip ated</w>
mi gr
p ack</w>
di stri
effec tively</w>
sensi tive</w>
stat us</w>
lear nt</w>
ge .</w>
ha haha</w>
begin ner</w>
z er
W om
Th ird</w>
fe w
Bi g</w>
inter view
Afri ca</w>
compre hen
young est</w>
S anta</w>
mi so</w>
ve -
se tt
ac ts</w>
call ing</w>
exerci ses</w>
est ing</w>
3 5</w>
de man
200 0</w>
happ ily</w>
pass eng
m s.</w>
ru b
appreci ated</w>
1 000</w>
r a</w>
du mp
an nu
A C
mag ic</w>
sou l</w>
Fuku oka</w>
s outh</w>
Go ing</w>
imag es</w>
cop y</w>
S we
Star bucks</w>
N E
ab les</w>
sel dom</w>
ne g
LO L</w>
di tionally</w>
fac ed</w>
andar in</w>
p ants</w>
stra w
P ho
econom ics</w>
ja zz</w>
consider ation</w>
Th ank
exc use</w>
You Tube</w>
le vels</w>
c y
E ner
rapi dly</w>
sk i</w>
re move</w>
z e
P ower</w>
, because</w>
un dant</w>
infor mal</w>
bi ll</w>
p al</w>
communic ating</w>
sh orter</w>
sil ly</w>
tri al</w>
200 3</w>
note book</w>
S ounds</w>
o cean</w>
avo i
an niversary</w>
So ,I</w>
No body</w>
co stu
ve s.</w>
comb ined</w>
un necessary</w>
d den</w>
ac ted</w>
sing ers</w>
sal ad</w>
S T
rec ep
den cy</w>
E conom
de te
D r
carto on</w>
is m</w>
Mac </w>
smil ing</w>
To hoku</w>
run s</w>
ful .</w>
abs or
Techno logy</w>
i -
s and</w>
m ..</w>
at e.</w>
U T</w>
No .
ul l
A ir
po ta
idi om
wi ll
refer ence</w>
hun g</w>
3 1</w>
sty les</w>
R ed</w>
Singap ore
sa ki</w>
per spe
imagin ed</w>
D .</w>
deli ver
stic ks</w>
Me an
sol di
mini ster</w>
att ack</w>
Califor nia</w>
wor rying</w>
g l
jo kes</w>
re pair</w>
fi sh
sho ck</w>
nu ts</w>
con sci
ex pl
qu ick</w>
2 -
R ep
appro ach</w>
emer gency</w>
skil l
do ors</w>
R ob
N ar
dest ination</w>
vi d</w>
noun s</w>
gro cer
3 00</w>
c tu
eri ous</w>
kore an</w>
ab e</w>
consu l
l er
we al
clin ic</w>
i son</w>
Japanese -
p uni
gather ed</w>
spr ings</w>
yo ga</w>
fing er</w>
in te
reg ard</w>
BB Q</w>
li ce</w>
lar ger</w>
D S</w>
L ater</w>
visi tors</w>
sha ped</w>
Every day</w>
ki mono</w>
Edu cation</w>
P ic
& &
S tr
pu sh</w>
thank ful</w>
mo thers</w>
anno yed</w>
shir ts</w>
che mi
influ enced</w>
Mi ya
ti re</w>
assi stant</w>
H y
gre ater</w>
lo g</w>
A G
am en</w>
W il
ma y
to y</w>
Bus iness</w>
Stud ents</w>
aga wa</w>
t ower</w>
V E</w>
ro bo
mo ther
parag rap
in se
9 0
E C
bo dies</w>
contr ary</w>
← </w>
inter n
________ ________
pl ate</w>
H mm
de vice</w>
sa ved</w>
Wh ite</w>
h y</w>
tal ent</w>
O ther
un happy</w>
x x
rea ders</w>
B ea
dre ssed</w>
. gov
tomorrow .</w>
k in</w>
tiv e.</w>
su l
lo ver</w>
A sa
text books</w>
pota to</w>
Introduc tion</w>
prepar ation</w>
ti mi
wel fare</w>
s g
bre e
fur nit
p an</w>
6 .
cri tical</w>
c rac
fac tor</w>
Mal a
pas sive</w>
S ta
b .</w>
ge ous</w>
le g</w>
Ar ab
co ck
p ort
op tion</w>
ac le</w>
hou se.</w>
pro jects</w>
occur </w>
wi s
an -
st ence</w>
cent r
ent ly.</w>
estab lished</w>
dep end</w>
. co
b b
S am
le s.</w>
Ener gy</w>
cat eg
festi vals</w>
ab sent</w>
inde ed</w>
s na
tr end</w>
phenomen on</w>
maj ority</w>
f arewell</w>
C oun
Com p
bri dge</w>
fort une</w>
es tic</w>
ec u
S al
fin e.</w>
over time</w>
ley ball</w>
s wa
su ici
H un
hop ed</w>
pu b</w>
mi ly</w>
well- known</w>
val ues</w>
C i
Ear thqu
attra cted</w>
ment ally</w>
Sh inj
organi z
four th</w>
du ty</w>
emo tional</w>
inst ant</w>
P rac
E ve</w>
lou dly</w>
govern ments</w>
pre mi
e m
gramma tical</w>
all y.</w>
ce i
C P
he art
pa int
Sen dai</w>
mir r
un natural</w>
coun tri
M il
strugg ling</w>
A T</w>
or d</w>
le ge</w>
B lu
re pa
sex u
M use
a id</w>
lu x
Other wise</w>
sa v
Su shi</w>
M u
Per son
B ook</w>
C O
en vy</w>
Lit tle</w>
es says</w>
hand some</w>
ill ness</w>
bo ther
in ts</w>
de .</w>
cowor kers</w>
Lang -8
hop ing</w>
divi ded</w>
blo g
ali st</w>
ag i</w>
Cur r
ali ties</w>
P S
radio active</w>
trans lating</w>
B ack</w>
con stantly</w>
S ou
/ lang-8.com</w>
ad mini
down town</w>
accep table</w>
-in- law</w>
fall s</w>
uti li
m ap</w>
chec k
pass age</w>
ta il</w>
par ently</w>
st ated</w>
re sted</w>
can cel
al arm</w>
D A
ap art</w>
C Ds</w>
depre ssion</w>
Pre fecture</w>
di o</w>
se cu
benef icial</w>
ab o
ent ing</w>
resu me</w>
descri bed</w>
mass age</w>
job .</w>
er no
al le
day ..</w>
peop le
bro thers</w>
Bir thday</w>
Re gar
pri me</w>
o be
on ents</w>
determin ed</w>
you th</w>
far m</w>
x D</w>
hu man
dru gs</w>
up load</w>
Se a</w>
v ant</w>
shoul der</w>
mus cle</w>
P al
H K</w>
Win d
P C
pop ular
de my</w>
un cle</w>
fa ir
mathema tics</w>
b orrow</w>
b le.</w>
An i
neighb or</w>
se ats</w>
m in</w>
process es</w>
expen ses</w>
A L</w>
se lect</w>
ti ps</w>
C ap
smi led</w>
g ata</w>
n ic</w>
K araoke</w>
disc ount</w>
D ev
s ac
Sci ence</w>
O b
continu es</w>
erno by
stre ss
H ot</w>
R om
M at
motor cycle</w>
ul ous</w>
he ight</w>
sun g</w>
ari an</w>
bar ely</w>
po ses</w>
cler k</w>
thous ands</w>
v a</w>
P or
e se
sur face</w>
chocol ates</w>
dis appeared</w>
hang ing</w>
advertise ment</w>
ac i
pu zz
, _
refre shed</w>
reduc ed</w>
sta tions</w>
S H
T V
ri sing</w>
concer ns</w>
gra ss</w>
cli ent</w>
wis dom</w>
ma d</w>
mu ch
ti ring</w>
for med</w>
person ally</w>
li </w>
Ba si
Re ally</w>
scienti sts</w>
n one</w>
J our
qu es</w>
p -
few er</w>
ea st</w>
sen ding</w>
ser va
er or</w>
touri st</w>
gener ations</w>
reac tion</w>
n .</w>
tourna ment</w>
ju mp</w>
11 th</w>
comp li
B rea
furnit ure</w>
v ey</w>
kin dly</w>
L at
8 0
bu </w>
de ar</w>
dang er</w>
en d.</w>
poli tici
so .</w>
lo ck</w>
ent ering</w>
R y
the at
my self.</w>
W el
T en
poin ted</w>
no t.</w>
ma ss</w>
aspe ct</w>
Mexic o</w>
8 .
color ful</w>
contra ct</w>
mea sures</w>
ni ghts</w>
d ying</w>
characteris tics</w>
ag ency</w>
symbo l</w>
kil ome
ent ure</w>
, 000
countr y
tex ts</w>
celebr ated</w>
busine ss
col lo
g ap</w>
wor d
S an
pl u
spo ts</w>
a se</w>
ar ts</w>
sy n
occa sion
/ 11</w>
tt ery</w>
f at
some thing.</w>
gent le</w>
-- -
McDon ald</w>
sand wi
M an</w>
c m</w>
' a</w>
entertain ment</w>
surroun ded</w>
tr op
You tube</w>
bad ly</w>
vi sa</w>
in fec
stitu tion</w>
recomm en
I L
mo vement</w>
ser ves</w>
/ I</w>
v ine
progra m
any time</w>
ap s</w>
Curr ently</w>
Lu ckily</w>
Star ting</w>
I R
th ri
r ental</w>
T om</w>
qu e
cou ples</w>
b alls</w>
sh aring</w>
ev en
co de</w>
ser ving</w>
crea tive</w>
c ross</w>
nu tri
r at
ev ol
ang er</w>
acqu ire</w>
we igh
di strict</w>
cooki es</w>
regar dless</w>
ha ted</w>
B oo
effici ently</w>
wi kipe
om y</w>
d d
rab bit</w>
foc used</w>
Mala ysi
attra ct</w>
k no
a wake</w>
min ds</w>
sg /
past a</w>
and .</w>
gi es</w>
re stri
she et</w>
possi bly</w>
examin ations</w>
de fe
snow boarding</w>
recover ed</w>
perfor man
v ow
Dra gon</w>
su sp
de vices</w>
e ..</w>
R u
no tes</w>
ign ore</w>
use less</w>
lea ds</w>
an t.</w>
ing ...</w>
gar bage</w>
su peri
pregn ant</w>
tu tor</w>
temp les</w>
nick name</w>
B lack</w>
it age</w>
tt er
To o</w>
wide ly</w>
cla i
distingu ish</w>
mean .</w>
vege table</w>
k k
Ar t</w>
and a</w>
th an
en s
rout ine</w>
de mon
f m</w>
clou ds</w>
E S</w>
hom es</w>
r ural</w>
bil lion</w>
vol leyball</w>
ci l</w>
recogni zed</w>
cu is
scor es</w>
rhy th
cour t</w>
argu ment</w>
. sg/
c ore</w>
f its</w>
a ff
on omi
potat oes</w>
d ated</w>
in ner</w>
C N
So cial</w>
it ..</w>
m ical</w>
progra mming</w>
Ch erry</w>
al o
Stud y</w>
desi gner</w>
si gned</w>
or g</w>
actre ss</w>
doc tors</w>
Muse um</w>
de fini
ser y</w>
arrang ed</w>
pa ste</w>
liter ally</w>
ri dic
wh er
se lec
Ma ke</w>
fle xi
Gre en</w>
M atsu
dis gu
low ing</w>
scri pt</w>
myst erious</w>
---- -</w>
ful l
rea ds</w>
organi zed</w>
a si
ser t</w>
purcha se</w>
7 th</w>
on y</w>
L ooking</w>
resi dents</w>
p lea
coun table</w>
S ak
su sta
expre ssed</w>
che erful</w>
respon d</w>
day ,</w>
de ss
wor ds.</w>
or ange</w>
spe ll</w>
200 2</w>
sil ent</w>
J ack
r ented</w>
list en
T er
trans fer
gen i
si sters</w>
cine ma</w>
So on</w>
M andarin</w>
age ing</w>
xi mately</w>
S F
H op
err or</w>
day time</w>
pla in</w>
H ea
gradu ating</w>
apologi ze</w>
ali zation</w>
ho o</w>
gu il
co very</w>
g un
pl at
ca sh</w>
analy sis</w>
ti e</w>
un expected</w>
Th ings</w>
pro fit</w>
p ure</w>
f li
maj oring</w>
New s</w>
mp s</w>
on a</w>
ari um</w>
equ al</w>
bas is</w>
conv inc
grand parents</w>
appli cations</w>
Mini ster</w>
regi ster</w>
blo gs</w>
dol ls</w>
li c</w>
win dy</w>
ll er</w>
col ored</w>
inv ite</w>
techn ically</w>
ba ked</w>
success fully</w>
Mo vi
so on.</w>
marke ting</w>
1 .</w>
cu tting</w>
ad ding</w>
M ari
ru p
sti mul
offic er</w>
di vor
pe ts</w>
imagin ation</w>
be cu
mus cles</w>
me ta</w>
ref lec
law s</w>
is es</w>
bur n</w>
rema ins</w>
sh u</w>
ab and
Wor k</w>
gu est</w>
de sper
Ch ernoby
E d
strate gy</w>
J i
har m
pl ying</w>
off ers</w>
For ei
ex ecu
bran ch</w>
pas sport</w>
fic ally</w>
rec e
Sy ste
ma ma</w>
coo led</w>
ac </w>
cre ating</w>
ro se</w>
S app
person .</w>
brea th</w>
Any ways</w>
challeng es</w>
tra de</w>
vir us</w>
li tt
M om</w>
t ag
li ons</w>
gol den</w>
langu age.</w>
centr al</w>
an ic</w>
ter .</w>
neighb ors</w>
shi ft</w>
re moved</w>
p he
dialec t</w>
z aki</w>
be fore
to ys</w>
sk ating</w>
rob ot</w>
j am</w>
P en
annu al</w>
le f
sc o</w>
........ ........
G over
j u</w>
Some day</w>
tri ps</w>
A ki
narr ow</w>
colle ct</w>
j us
ama zed</w>
bili ties</w>
cal end
me etings</w>
ad ditional</w>
stri c
ques tion
Gi ve</w>
ak a</w>
st ates</w>
Dev el
assign ments</w>
short age</w>
A D
ch u
ob viously</w>
etc ..</w>
continu ing</w>
Ama zon</w>
ob tain</w>
bo xes</w>
gu ar
de cl
musici ans</w>
sub si
t one</w>
Heal th</w>
oper ating</w>
Sur pri
ch y</w>
youtu be</w>
ab le.</w>
char set</w>
Jo b</w>
__ </w>
ar .</w>
a wa
ye ah</w>
Earthqu ake</w>
destro yed</w>
M om
e vil</w>
E do</w>
9 .
O ver</w>
war m
tt es</w>
l ers</w>
batter y</w>
wa ves</w>
N ight</w>
arr ange</w>
m ouse</w>
d .
per si
ag ana</w>
con jun
20 th</w>
Re member</w>
disadvant ages</w>
C ul
hun dre
en h
N ow
tu i
me lo
dom estic</w>
al ed</w>
R amen</w>
e- mails</w>
so li
o ven</w>
b other</w>
tw o-
bra tion</w>
fun ding</w>
n .
sche dul
ke ys</w>
choo sing</w>
l ength</w>
dial o
instru ments</w>
sha me</w>
stro ke</w>
S T</w>
fav or</w>
4 .
recor ding</w>
fl our</w>
T _
S C
ro lled</w>
class .</w>
pollu tion</w>
deca des</w>
2 .</w>
sen i
de la
kil ling</w>
pack age</w>
Kan sai</w>
ough ly</w>
N ag
exc ite
jec ted</w>
Devel op
hi de</w>
suici de</w>
Bri tain</w>
An y</w>
s light</w>
inde x
ut f
6 th</w>
v it
discri mination</w>
challeng ing</w>
pac ked</w>
tra in
ye t.</w>
ru sh</w>
I G
appro ximately</w>
han ded</w>
gr an
Chernoby l</w>
ob lig
fe es</w>
s oooo
cla im</w>
at to</w>
cyc ling</w>
v s</w>
acqua int
coo ler</w>
volu me</w>
le an
intern ship</w>
collo qui
z oo</w>
v at
Sapp oro</w>
cowor ker</w>
quar re
graph ic</w>
ull ,
country side</w>
C enter</w>
mirr or</w>
, you</w>
separ ated</w>
inst alled</w>
hi ll</w>
achi eved</w>
Pri me</w>
ink ans
refriger ator</w>
for th</w>
N aga
present ed</w>
di o
utf -8</w>
distri bu
ho le</w>
t ...</w>
Ad ditionally</w>
ar i</w>
as on</w>
artic le
sk ir
mid -
con clud
docu ment</w>
adm ire</w>
mat ure</w>
consi st
t ons</w>
enti rely</w>
en ce
Bhu tan</w>
str eng
con cep
E a
cancel ed</w>
po or
mb ling</w>
thre e-
ten se.</w>
ak o</w>
man ner</w>
per su
ri c</w>
Stre et</w>
f ossi
ma ker</w>
5 .
Col lege</w>
zh ou</w>
ve ments</w>
Shi bu
fall en</w>
succe eded</w>
name se</w>
physi cs</w>
tis tics</w>
ca tion.</w>
ini ti
tou ching</w>
bo d
M A
trouble some</w>
f fe
BB C</w>
Hon estly</w>
expre ssing</w>
N ara</w>
g ning</w>
ex ce
sentence s.</w>
bri lli
bas ket</w>
Holi day</w>
f ed</w>
fic tion</w>
B ur
ac custom
ag gre
jump ed</w>
bit ter</w>
si te.</w>
a qu
Olymp ics</w>
po cket</w>
con s
m ou
consu mption</w>
1 ,
po sts</w>
w n</w>
V er
promo te</w>
multi ple</w>
I m</w>
paint ings</w>
strugg le</w>
adverti sing</w>
spe ct</w>
ㅠ </w>
eri al</w>
un believ
h o</w>
hur ts</w>
deli very</w>
Tor onto</w>
on y
gre eting</w>
capitali ze</w>
ar ma
bre vi
po ll
off ici
goo d-
O ld</w>
ori gin</w>
a de
Shinj uku</w>
da i
enh ance</w>
K at
di ag
rela tive</w>
vi li
nu mer
accustom ed</w>
3 3
Pre sident</w>
tom at
di ty</w>
se d.</w>
es ,</w>
toma to</w>
7 .
tom s</w>
Mi y
ol dest</w>
camp ai
su its</w>
ea .</w>
mista ke
T emp
pro ve</w>
weap ons</w>
t ,</w>
c ure</w>
supp orted</w>
up date</w>
pla ce
pain ted</w>
g ation</w>
min ton</w>
z awa</w>
Braz il</w>
orr or</w>
fi gu
Any wa
gu e
pro v
supp er</w>
th en
wor ries</w>
safe ly</w>
La stly</w>
confir m</w>
y l
quo te</w>
fle w</w>
vo ices</w>
E i
cha p
other .</w>
re sc
toge ther.</w>
6 5</w>
, which</w>
up loaded</w>
architec ture</w>
increa ses</w>
ti p</w>
s la
or ders</w>
ok u</w>
so ba</w>
le ep
sequ ently</w>
lec tures</w>
Fa mily</w>
con fu
L A</w>
Chi ba</w>
pronoun ced</w>
gh ten
nur se</w>
electri cal</w>
th or
me ,</w>
cli ents</w>
schedul ed</w>
d ried</w>
ab brevi
S tation</w>
I r
z a
e y.</w>
str on
al y</w>
g un</w>
instru ment</w>
draw n</w>
ei gh
g ent</w>
com posed</w>
prin ted</w>
ir ation</w>
Mo sc
dom in
see k</w>
I ON</w>
ha y</w>
necess arily</w>
mar k
To yo
ing s.</w>
w are</w>
co sme
fe ed</w>
ance stor
M .</w>
musici an</w>
N an
exi stence</w>
Ev entually</w>
f al
Fa ther</w>
k en
descri bing</w>
s par
ur o</w>
Gover n
bir th
pro verb</w>
win s</w>
in o
wan ting</w>
audi o</w>
carri er</w>
happ en
expec ting</w>
dro gen</w>
a war
re sort</w>
bl ind</w>
intel ligent</w>
Correc t</w>
bla me</w>
chemi stry</w>
Tri p</w>
competi tive</w>
appe ti
fresh man</w>
jac ket</w>
jo ining</w>
of -
Wat ching</w>
T aka
la z
200 1</w>
Te ll</w>
F l
po d</w>
G lo
ten ds</w>
le i
stress ful</w>
att ac
r r
u pper</w>
T ar
ici ency</w>
b un
H I</w>
4 5
p our
hambur ger</w>
sha d
V ER
Re search</w>
fir m</w>
F re
un like</w>
lo vers</w>
strang ers</w>
C ri
dru g</w>
sc rea
re servation</w>
month .</w>
rela tions</w>
S now</w>
dist ur
ous ness</w>
exi sts</w>
nor thern</w>
recei ving</w>
st on</w>
chil dr
grand ma</w>
gor geous</w>
day ,
T ower</w>
E l
de mo
K ar
G et</w>
ca fe
near est</w>
insp ired</w>
innova tions</w>
sign s</w>
provi ding</w>
indic ates</w>
Buddhi st</w>
know .</w>
pul led</w>
physi cally</w>
Wind ows</w>
onomi yaki</w>
Ch ang
Su b
sp a</w>
gri lled</w>
O ff
ho st
T_ T</w>
E gy
ad jec
ob st
perspe ctive</w>
ba mbo
O ver
an ced</w>
particip ants</w>
comb ination</w>
mode ls</w>
J ack</w>
bambo o</w>
op timi
te l</w>
philosop hy</w>
i al</w>
patter n</w>
can dy</w>
fil es</w>
automa tically</w>
sur vey</w>
chan nel</w>
di a.
de d.</w>
4 8</w>
cle ver</w>
calend ar</w>
i i
co ach</w>
K or
wi ves</w>
book .</w>
tur ed</w>
r and
sugg ests</w>
d ary</w>
hou sing</w>
con secu
squ are</w>
ther ap
come di
Ti mes</w>
ph arma
15 th</w>
pron oun</w>
fa irs</w>
di ct</w>
ur ban</w>
b unch</w>
comfor t</w>
Fri end</w>
H ou
ty -
design s</w>
cele bri
b attle</w>
inkans en</w>
di a
s ke
where as</w>
zu oka</w>
b ank
occasion ally</w>
hundre ds</w>
evi dence</w>
r op
qu anti
Viet namese</w>
fif th</w>
I F
twe l
s orr
myst ery</w>
ra ising</w>
sh ining</w>
Ke ep</w>
N HK</w>
dis cover</w>
rece ssion</w>
Pro fe
deliver ed</w>
su ke</w>
time s.</w>
symp toms</w>
popular ity</w>
C al
ra il
Re actor</w>
S ec
ridic ulous</w>
er ship</w>
coo l
ele v
se ts</w>
regar ded</w>
introduc ing</w>
her o
ol d.</w>
re mind</w>
Me dic
thin k.</w>
/ a</w>
Hu man</w>
Pu blic</w>
car rying</w>
harm ful</w>
techni ques</w>
Mean while</w>
Mosc ow</w>
empha sis</w>
pic k
meaning ful</w>
fu ture.</w>
ref used</w>
at .</w>
. It</w>
Le e</w>
mon ey.</w>
advi se</w>
re placed</w>
Christi an</w>
spiri ts</w>
N Y
mu sh
Am ong</w>
ac com
regar ds</w>
bra ve</w>
con tain</w>
M Y</w>
ancestor s</w>
be ll</w>
room .</w>
col lap
lear ner</w>
reali sed</w>
Shibu ya</w>
st ol
rec all</w>
for give</w>
plan et</w>
room mates</w>
We b</w>
ab out
li p
C oo
snow ed</w>
ac cu
D en
l ings</w>
d ating</w>
O S</w>
emo tion</w>
ver .</w>
un a</w>
happ ier</w>
en counter</w>
be have</w>
A .</w>
C entr
ag u
super vi
B ang
happ y.</w>
descri bes</w>
deci sions</w>
butt ons</w>
lon gs</w>
fun d</w>
collec tion</w>
muse ums</w>
de ed</w>
Mini stry</w>
idi om</w>
min ated</w>
inter views</w>
studi o</w>
ic e.</w>
Ok ay</w>
classi c</w>
in ev
Ro ck</w>
gener ate</w>
Comm uni
D ar
educ ated</w>
t v</w>
K it
re solution</w>
sh a</w>
kin da</w>
techni que</w>
Se ver
il legal</w>
empha si
ro of</w>
techno logical</w>
wa sted</w>
dri vers</w>
shou ted</w>
che mical</w>
/ journals</w>
I D
M ang
o l</w>
g ant</w>
ro ad
cha in</w>
val ent</w>
summ ary</w>
u tion</w>
sp a
ab or
str op
wikipe dia.
l ine
Com pared</w>
Wom en</w>
ou ts</w>
f ond</w>
al pha
clu bs</w>
photo graph</w>
religi ous</w>
nu clear
transfer red</w>
decrea sing</w>
der .</w>
idiom s</w>
Jack son</w>
fac ts</w>
carto ons</w>
C er
son g
So ci
schol ar
gue ssed</w>
sel fish</w>
ed ..</w>
e m</w>
W ar
e ing</w>
fro zen</w>
po ver
M s</w>
good bye</w>
s ,I</w>
associ ated</w>
5 -
teen agers</w>
P ut</w>
gr atu
Gir l</w>
D ec
k ni
Com pu
hear ts</w>
e ding</w>
ne phe
10 th</w>
supp orting</w>
b ited</w>
conduc ted</w>
for ge
guess ing</w>
' The</w>
inse cts</w>
trea sure</w>
inv ented</w>
B al
S up
9 th</w>
sh ut</w>
ex posed</w>
photo graph
house work</w>
ter n
part ners</w>
instruc tor</w>
dor m</w>
Ori gin
Th ir
uni form</w>
es ,
ar rested</w>
de le
hum or</w>
advertise ments</w>
In formation</w>
grocer y</w>
pla ce.</w>
irrit ated</w>
ban ned</w>
par ent
un familiar</w>
awk war
ON E</w>
sub mit</w>
invest ment</w>
be longs</w>
gen der</w>
ra tion</w>
pati ence</w>
Olymp ic</w>
gre en
ma .</w>
us a</w>
attemp t</w>
re gu
Centr al</w>
be l</w>
cons cious</w>
reli able</w>
B er
co al</w>
h orror</w>
cuis ine</w>
red undant</w>
ch op
Ma king</w>
k ing.</w>
sen se.</w>
b ars</w>
par ks</w>
bri de</w>
L in
E ither</w>
Pol and</w>
time ..</w>
ge tic</w>
ac ha
i ed</w>
pap er
un clear</w>
c ular</w>
gh ted</w>
di ver
19 7
Wi kipe
C ho
B O
key board</w>
fing ers</w>
sh ri
T- shirt</w>
fashi on
pu ll</w>
ci vili
sa mur
st ream</w>
W est</w>
f lat
holi c</w>
Shi zuoka</w>
op tions</w>
F ood</w>
N ever</w>
nur sery</w>
re pu
ag ger
ty ping</w>
advi sed</w>
ha bit
fe ed
a side</w>
im migr
Ge or
U K
T it
W he
.... ...</w>
yu mmy</w>
po d
exp and</w>
sexu al</w>
N ature</w>
brea king</w>
U T
sop hi
C el
week days</w>
me tal</w>
sta dium</w>
on ship</w>
bus es</w>
ali sm</w>
commu te</w>
U. S.</w>
tion ary</w>
psycho logical</w>
te st
Sever al</w>
hom est
S il
pas ses</w>
mal es</w>
a ked</w>
g gy</w>
pow der</w>
sol ving</w>
belong ed</w>
an y.</w>
AN D</w>
ani a</w>
vehic les</w>
H ome</w>
G ar
a muse
ak ana</w>
na tions</w>
kilome ters</w>
descri ption</w>
H igh
Su per
ve st</w>
c and
man ners</w>
cru cial</w>
Hop efully</w>
Wor king</w>
stor m</w>
sn ack</w>
sou thern</w>
dy na
bad minton</w>
con s</w>
qu ake</w>
understand .</w>
do l</w>
y al</w>
wa s
terna tives</w>
tra ge
repe ti
in vention</w>
bott les</w>
now ..</w>
ho tter</w>
la sted</w>
ow ned</w>
ly wood</w>
, there</w>
Y uk
world wide</w>
en .
bu t..</w>
consecu tive</w>
M el
gr and</w>
ak ami</w>
performan ces</w>
But ler</w>
pro hi
st al
rela tion</w>
foo d.</w>
accur ate</w>
passeng ers</w>
satis fac
infor m</w>
wa y
swi tch</w>
fossi l</w>
ri sks</w>
soon er</w>
meas ure</w>
deb ate</w>
Be at
expen di
ka i</w>
col d.</w>
bree ze</w>
m ly</w>
Fr anci
ea th</w>
disa sters</w>
G O
profess ors</w>
sinc er
brilli ant</w>
infor ma
sh .</w>
illu str
8 00</w>
be .</w>
mi -
ti ous</w>
cre di
S imp
ank ly</w>
wh eat</w>
boo ts</w>
er o
el dest</w>
Sh r
ner .</w>
lon el
pover ty</w>
comprehen sion</w>
pur poses</w>
h ire</w>
Wri te</w>
in fra
episo des</w>
b o</w>
/ index
List ening</w>
gather ing</w>
knowle d
continu ous</w>
P lu
U p</w>
i ku</w>
5 5
al right</w>
ob jective</w>
p o</w>
t ant</w>
ap ples</w>
ti es.</w>
ten dency</w>
pre tend</w>
cal cul
Prac tice</w>
w s</w>
l ingu
glo b
S O
stea k</w>
ob jec
OM G</w>
wrong .</w>
head ed</w>
lig ence</w>
volunte ers</w>
lo ving</w>
H ear
en ce.</w>
U mm
se af
Ne ed
' t</w>
le ague</w>
app ing</w>
B L
ma sk</w>
ac cess
tra ined</w>
Wikipe dia</w>
shel f</w>
displa yed</w>
t ched</w>
sil ver</w>
climb ed</w>
Exa mple</w>
Ra iny</w>
ex cep
cru el</w>
w rest
op tional</w>
mon ey
Mic ro
t ,
bur ned</w>
eng lish
fun eral</w>
H a</w>
ma xi
promo tion</w>
ca tion
ap plying</w>
h ..</w>
re mo
reli ef</w>
prin t</w>
cu ps</w>
chil ly</w>
e dge</w>
sti ff</w>
in ste
fa ke</w>
M ary</w>
compar ison</w>
ing .
Ta king</w>
D r</w>
translat or</w>
S P
k ar
blo ck</w>
figu res</w>
ga wa</w>
D or
shi mi</w>
b arri
ad just</w>
Po li
house hold</w>
dent al</w>
Blu e</w>
to ler
butt er
lo t.</w>
affec ts</w>
wi ki</w>
ul ti
gra tion</w>
clo th</w>
C am
down load</w>
sa dness</w>
an e</w>
doll ar</w>
mat ches</w>
H as</w>
broadca sting</w>
10 .
dis covery</w>
your s</w>
bloom ing</w>
re ss</w>
gr ounds</w>
ha m</w>
h ence</w>
Malaysi a</w>
rec ru
beli ef</w>
har dest</w>
ne sses</w>
Ki m</w>
z zy</w>
chan ne
re ven
be cause
compla ined</w>
ath y</w>
ru pt</w>
amuse ment</w>
t ful</w>
bac ks</w>
M ag
ll ow</w>
Mur akami</w>
the -
B ad</w>
fun c
Ri ver</w>
ly -
8 th</w>
ga me
clo se
hh hh
ru shed</w>
8 -
concent r
cooper ation</w>
bar becu
am .</w>
J AP
ref lect</w>
sa fer</w>
ch ina</w>
Gen etic</w>
ph p</w>
bad .</w>
sc rat
de aling</w>
wh el
0 .
in her
si an</w>
Basi cally</w>
re lu
to fu</w>
X i
lab or</w>
A R</w>
UR L</w>
K ei
souven ir</w>
certi fic
YO U</w>
qui et
main ten
CN N</w>
cr y
compla ining</w>
A ca
ener getic</w>
fri ghten
r y
Lang-8 .</w>
adap t</w>
bom b</w>
A ss
sai d,</w>
pu ts</w>
soldi ers</w>
sh ment</w>
hote ls</w>
bar a</w>
capitali zed</w>
c ough</w>
Surpri singly</w>
hospit als</w>
clo sely</w>
e scap
go ti
s '</w>
Indone sia</w>
tal ented</w>
shoo ting</w>
concer ning</w>
St art</w>
Th inking</w>
la dies</w>
4 00</w>
rele vant</w>
ug ly</w>
Ge tting</w>
... I</w>
u -
dead line</w>
co t
exi sting</w>
universi ty.</w>
con fe
ing er</w>
crimin al</w>
bri ef
pl ur
approach ing</w>
stra ct</w>
NO T</w>
conv ey</w>
gh et
s lu
m are</w>
Need less</w>
mel on</w>
expec tations</w>
B ab
ali zed</w>
ca using</w>
un i</w>
ex agger
sc al
sophi stic
man .</w>
S mi
Hol lywood</w>
foo t
pa yment</w>
rhyth m</w>
P O
poe ms</w>
mo de</w>
hy drogen</w>
℃ </w>
ene my</w>
j eal
colloqui al</w>
Mi d
fami ly.</w>
Franci sco</w>
attac ked</w>
month ly</w>
no ti
har d.</w>
cele bration</w>
less ly</w>
X -
fortun ate</w>
※ </w>
he he</w>
su re
I .</w>
assu med</w>
acc ents</w>
m or</w>
bur ning</w>
min ded</w>
terr ori
concep ts</w>
superi or</w>
ing ton</w>
Develop ment</w>
mor al</w>
A ge</w>
infor med</w>
ade qu
hol ds</w>
tiv eness</w>
ama z
di </w>
me ss</w>
pl ot</w>
ch eri
Elec tri
decor ated</w>
car bon</w>
b one</w>
N O</w>
T ex
strang er</w>
, he</w>
3 3</w>
.co .jp</w>
tra di
f it
uni on</w>
K yu
Hi story</w>
In ci
har sh</w>
St ory</w>
sel ls</w>
ter nal</w>
C old</w>
E E
per cent
touri sm</w>
cont ent
2 2
de ath
di ary.</w>
m n
twel ve</w>
oun ts</w>
vide o
sun set</w>
ne cessi
Li ving</w>
fa ti
ud on</w>
appeti te</w>
gener ated</w>
over whel
stol en</w>
fan cy</w>
F oo
w alls</w>
incredi ble</w>
p in
pe pper</w>
rema ining</w>
emplo yed</w>
dra ft</w>
mm a</w>
eng ine</w>
om it</w>
i ze</w>
es ..</w>
sick ness</w>
Engine ering</w>
attra ctions</w>
concent ration</w>
imple mented</w>
pu mp
is a</w>
hy po
dis order</w>
h ir
pre viously</w>
stud y
S leep
Wel come</w>
po sting</w>
accom mo
atom ic</w>
stud ent.</w>
mi x
e ats</w>
diction aries</w>
prote ction</w>
ma il
wor n</w>
N et
sme lls</w>
re volu
tui tion</w>
gra ve</w>
e ties</w>
c it
Con sequently</w>
A ri
pl us</w>
Person ally</w>
countr y.</w>
differ ently</w>
l ined</w>
ex ception</w>
deta iled</w>
R I
cra tic</w>
har m</w>
st oc
pu p
we ars</w>
win ner</w>
. The</w>
Ne ther
guar an
O thers</w>
mb led</w>
B T
bl an
bed ded</w>
logi st</w>
sav ings</w>
, a</w>
Ad v
e el</w>
pic ture
shoo t</w>
Miya zaki</w>
reve al</w>
L ady</w>
chi ps</w>
oni on</w>
paragrap h</w>
resear chers</w>
G in
25 th</w>
er ature</w>
tt able</w>
ob jects</w>
de par
conven tional</w>
f ought</w>
gra titude</w>
chil dish</w>
er ..</w>
cor n</w>
surroun ding</w>
se s.</w>
vat ar</w>
/ or</w>
quo tation</w>
is ..</w>
cl ari
re turning</w>
wor th
O ut</w>
che ap
Ma y
produc tive</w>
chi ef</w>
V ol
St ar</w>
English ..</w>
ti ght</w>
s ar
Air port</w>
V a
samur ai</w>
dan ced</w>
ma ssive</w>
glo omy</w>
da wn</w>
c ant</w>
homest ay</w>
reali stic</w>
contro versi
mer ely</w>
sil ence</w>
aa aa
ge o
sc ol
shr ines</w>
i phone</w>
seni ors</w>
atu re
convinc ed</w>
s in
ac ity</w>
s kin
on ics</w>
depen dent</w>
tomat oes</w>
di ly</w>
all -
smoo th</w>
require ments</w>
sac ri
mainten ance</w>
M O
s ory</w>
Gra du
pre -
au l</w>
respe c
In deed</w>
de al
ir on</w>
fil ling</w>
gratu lations</w>
2 1st</w>
d ently</w>
d able</w>
im it
N Z</w>
viol ent</w>
Tea cher</w>
crow d</w>
al ot</w>
drea m
assi gned</w>
om i</w>
Sa ying</w>
L Y</w>
con cre
1 4th</w>
sc ent</w>
ES L</w>
sur f</w>
But ..</w>
g lu
min or</w>
woo den</w>
la cking</w>
oun g</w>
so ap</w>
anxi ety</w>
ck .</w>
propo sed</w>
G un
MS N</w>
me chan
pre ten
Por tu
200 9
weal th</w>
W ater</w>
elev ator</w>
rou te</w>
Beat les</w>
defini tion</w>
re presents</w>
sof a</w>
plat form</w>
U k
k -
hop es</w>
sp lit</w>
Nag ano</w>
Forei gn</w>
ad mission</w>
ast oni
fif teen</w>
F ree</w>
su pri
p ud
D ou
satisfac tion</w>
land scape</w>
proper ty</w>
d at
rela x
gradu ates</w>
ol ine</w>
stru ck</w>
terri bly</w>
dis appear</w>
tor ies</w>
insi st</w>
in ted</w>
grow s</w>
After wards</w>
cere mon
wi t
ne u
ch est</w>
A lice</w>
In stitute</w>
sophistic ated</w>
em bedded</w>
A ir</w>
drea med</w>
ne goti
ele ments</w>
D oc
seaf ood</w>
re tired</w>
/ j
tra sh</w>
T A</w>
cat ching</w>
so aked</w>
Govern ment</w>
inten tion</w>
f ting</w>
re served</w>
Sh opping</w>
cigare ttes</w>
ok a
cra ft</w>
deman ds</w>
hair cut</w>
ne st</w>
thre at
wi shed</w>
si </w>
monit or</w>
smi les</w>
g an</w>
pi g</w>
N atur
wri tes</w>
p oo
ch iro</w>
ch a</w>
fra me</w>
cor respon
te s.</w>
f loo
pun ctu
Mi ss</w>
Har uki</w>
fascin ating</w>
sec ure</w>
c ope</w>
me ter</w>
e ds</w>
W on
adv enture</w>
indic ate</w>
i ca
K ama
b loo
De partment</w>
di ar
ti li
ge ment</w>
contro lled</w>
mb </w>
goo gle</w>
M ei
cap able</w>
st ones</w>
g ment</w>
co inci
repe ated</w>
F ol
dess ert</w>
ign ored</w>
Sel f-
A -
AN G
Jour nal</w>
English- speaking</w>
f icial</w>
countri es.</w>
mon key</w>
spa ghet
achiev ement</w>
cla use</w>
W R</w>
A Y
speci fically</w>
accoun ting</w>
decrea sed</w>
, ,</w>
K y
numer ous</w>
imp lied</w>
practi se</w>
concer ts</w>
gent le
occur s</w>
poll en</w>
th -
op en
he y</w>
dre sses</w>
occu p
i .</w>
vehic le</w>
st ops</w>
air -
fashion able</w>
M er
assi stance</w>
S E
C lu
b ou
un it</w>
C li
Mexic an</w>
ga mi</w>
Ass o
br inging</w>
hon ey</w>
fascin ated</w>
B C</w>
wri ters</w>
li vely</w>
F ili
inno cent</w>
Shr ine</w>
tran sport</w>
ate dly</w>
au tom
all y,
speci es</w>
e co
hi king</w>
Toyo ta</w>
q </w>
ev acu
comm it
chop sticks</w>
R es
en or
politici ans</w>
h ori
lo ttery</w>
cab bage</w>
ang e
Mor ning</w>
unbeliev able</w>
le st</w>
w ed</w>
J un
Y oung</w>
F C</w>
Al ways</w>
ri ght.</w>
fun da
e gg
ne y
De sign</w>
flexi ble</w>
Comp any</w>
Rec ently
cock ro
pu shed</w>
high way</w>
rec ently.</w>
. pdf</w>
M en</w>
z aka
pur sue</w>
su re.</w>
mid d
A bo
f es</w>
Yest er
e ,</w>
sub ordin
embarra ssing</w>
er _
pu b
li a</w>
a meric
f ted</w>
sa mple</w>
Pe ter</w>
Sh inkansen</w>
repu tation</w>
St ate</w>
shoc king</w>
P op
la sts</w>
experi ments</w>
direc ted</w>
robo ts</w>
Fe b</w>
A I
t ac
p a</w>
acci dentally</w>
con struc
pre fec
a o</w>
writ ing.</w>
run ny</w>
u ps</w>
Su gges
tran si
temper atures</w>
Par ents</w>
visi ble</w>
comp any.</w>
Arab ic</w>
ob serve</w>
so y
t less</w>
on ent</w>
discus sing</w>
Tal king</w>
d s,</w>
ta ku</w>
di ving</w>
deter mine</w>
li ft</w>
end ure</w>
M erry</w>
reli eve</w>
lea f</w>
auth ors</w>
g ad
after no
i ous</w>
ma tic</w>
gen e
un easy</w>
consci ously</w>
oper ate</w>
D O</w>
Chi ca
k awa</w>
see ds</w>
hu </w>
hea ven</w>
NY C</w>
sha ke</w>
ban ana</w>
af fairs</w>
du st</w>
sta tistics</w>
e u
tex t.</w>
geni us</w>
-------------------------------- ------------
g -
B lo
n' t.</w>
do ll</w>
Sh ir
fin ance</w>
en. wikipedia.
ro les</w>
entr y.</w>
er ce</w>
A mer
hy dr
fr om
after wards</w>
r ates</w>
ri ght
dis ci
identi ty</w>
y ard</w>
campai gn</w>
hon estly</w>
char ming</w>
med al</w>
p ond</w>
fi cations</w>
ta xes</w>
hi dden</w>
12 th</w>
V eg
E- mail</w>
cal ories</w>
mi ssions</w>
ee ee
O ka
co ast</w>
/ b
H al
on ing</w>
tan e
conversa tional</w>
A w
4 -
in stitute</w>
Na tive</w>
D an
R &
b oun
rap id</w>
expla ins</w>
S cot
P aci
D ut
K im
x y
ref use</w>
Abo ve</w>
English ,</w>
ac les</w>
e ments</w>
expre sses</w>
Con si
desi gning</w>
too th
t to</w>
n ull,
melo dy</w>
der i
ag ri
as p
da tions</w>
expla ining</w>
cre atures</w>
el ing</w>
foo lish</w>
far mers</w>
win ning</w>
awkwar d.</w>
b ite</w>
B en
Mr .</w>
b our
Nor mally</w>
Gu ang
ol d-
fu els</w>
. This</w>
Pe ter
produc ing</w>
an o
min d.</w>
pic nic</w>
whe el</w>
w ow</w>
ment ation</w>
spac es</w>
oooo oooo
com mas</w>
inv itation</w>
noun .</w>
ud es</w>
ou ra
p. m</w>
in stitu
P aul</w>
ha ve
ni ece</w>
struc tures</w>
consu mers</w>
pen sion</w>
mean ing.</w>
ton igh
---- --</w>
o y
she ep</w>
continu ously</w>
guil ty</w>
micro wave</w>
e mails</w>
th o
identi fy</w>
Gr and
cur ri
work force</w>
ag en
feed back</w>
con ve
consequ ences</w>
Kin dle</w>
hal f-
di sh
brea the</w>
n on</w>
assu ming</w>
post p
bal con
nephe w</w>
K ing
Ni i
D I
z er</w>
fe llow</w>
barbecu e</w>
ex po
i chi</w>
poli ce
u res</w>
Mo on</w>
ssi on.</w>
Ca mer
f rea
ri dge</w>
Mang a</w>
denti al</w>
ro ses</w>
over all</w>
low -
dol ph
st ere
infra structure</w>
Ya hoo</w>
compe te</w>
un pleasant</w>
1 50</w>
percent age</w>
chap ter</w>
accu mul
hop efully</w>
R ice</w>
li graphy</w>
ak u</w>
scor ed</w>
comm and</w>
D ream</w>
c ate</w>
13 th</w>
H ai
D P</w>
straw berry</w>
conf li
p on</w>
D O
3 2</w>
o sity</w>
W hatever</w>
trage dy</w>
la s</w>
clear er</w>
pronun ci
ki lo
h ow
en o</w>
tu b</w>
Ang el
■ </w>
Pal ace</w>
lun ch
no -
a e
understand able</w>
fi es</w>
Bang k
ell a</w>
an i</w>
bu tter</w>
O ut
agre ement</w>
mi es</w>
SC WR</w>
S ent
A V
assi st</w>
fair ly</w>
Dis ney
movi e.</w>
langu ag
recep tion</w>
Sp orts</w>
shoul ders</w>
accomp lish</w>
empha size</w>
cent re</w>
gra ms</w>
clean er</w>
et .</w>
ang le</w>
in ven
Me mor
ambi gu
m ated</w>
ph one
Chica go</w>
a tic</w>
inve st</w>
k ill
men d
tire d.</w>
Gir ls</w>
spaghet ti</w>
squ it
E X
si us</w>
dru ms</w>
g ay</w>
ani ma
Se attle</w>
B I
je ans</w>
spe c
pu pp
O F</w>
cel ls</w>
sc ul
v es
O ct</w>
Nether lands</w>
p our</w>
_ -</w>
stand ards</w>
aqu arium</w>
al s.</w>
concre te</w>
s qui
Well ..</w>
Ga mes</w>
L O</w>
wri tting</w>
v ague</w>
ne x
d ure</w>
V en
deli ver</w>
some thing
strang e.</w>
defin ed</w>
B E
de va
abs ence</w>
jo g</w>
own s</w>
Je sus</w>
ab i</w>
humi dity</w>
hal f
premi um</w>
m ani
repe atedly</w>
ten ses</w>
den s</w>
Ar ound</w>
A le
at o
Whe ther</w>
○ </w>
t ack
sun light</w>
cro ssed</w>
pre position</w>
mp 3</w>
S of
m s
ag ent</w>
, they</w>
a mat
Sugges tion</w>
i gh</w>
fu me</w>
b at
w inter
Un less</w>
, everyone</w>
plan ted</w>
controversi al</w>
bur st</w>
D ri
foun dation</w>
Sa it
19 th</w>
Syste m</w>
kni fe</w>
s atur
mi ser
fanta sy</w>
ck er</w>
the tic</w>
5 00
w o
cou gh
Budd ha</w>
ori ties</w>
bri ef</w>
, she</w>
viol in</w>
organi ze</w>
extre me</w>
h mm
jeal ous</w>
Soci ety</w>
re se
thr owing</w>
nur sing</w>
Kama kura</w>
super markets</w>
su mo</w>
Paci fic</w>
soci et
/ wiki</w>
t in</w>
sh opp
low s</w>
min ate</w>
l in</w>
costu me</w>
L ake</w>
m oo
Un like</w>
non- native</w>
be lt</w>
dec line</w>
Emp eror</w>
satis fy</w>
ski p</w>
un ning</w>
sha king</w>
fif ty</w>
k ick</w>
mp les</w>
pri de</w>
enthusias tic</w>
l a</w>
d ates</w>
vic tory</w>
explan ations</w>
in convenient</w>
- to-
n ut</w>
na ils</w>
20 12</w>
com po
fir st
Th ink</w>
n om
U C
Sam ur
Man agement</w>
soun ding</w>
lead ers</w>
＾ </w>
V ic
possi ble.</w>
patter ns</w>
war ning</w>
S S</w>
de vo
un countable</w>
S ure</w>
over night</w>
view ed</w>
4 9
b by</w>
camp ing</w>
Pic ture</w>
/ 10</w>
N ic
process ing</w>
pra ised</w>
-------- --</w>
diag no
por tra
U M
oni ons</w>
se es</w>
cap acity</w>
work shop</w>
use .</w>
alpha bet</w>
quanti ty</w>
ex changed</w>
or chest
pa y
v ital</w>
t wee
De mo
clai med</w>
sec tor</w>
Po lish</w>
announ cement</w>
wher ever</w>
T ou
t une</w>
Nii gata</w>
stom acha
ss or</w>
foc using</w>
r ay</w>
pic king</w>
Aki ha
ic a</w>
' cause</w>
kore a</w>
rema ined</w>
exerci sing</w>
Ex c
reduc ing</w>
book s.</w>
v ul
i dol</w>
- cooled</w>
equi valent</w>
P P
par ade</w>
L unch</w>
bu si
dela yed</w>
---------------------------------------------------------------- ----------------
char ged</w>
R est
sh it</w>
coun ting</w>
b less</w>
prov ince</w>
go .</w>
na me.</w>
fin ds</w>
ra ces</w>
the ast</w>
for ces</w>
ful fill</w>
ti ed</w>
I re
drea ming</w>
Tra vel</w>
repa ired</w>
laun ched</w>
XX X</w>
fashi oned</w>
Ho tel</w>
exper ts</w>
sc al</w>
Gra mm
cul tiv
r ings</w>
wa sting</w>
Bo ston</w>
But ,I</w>
Ca stle</w>
Sak ura</w>
emplo yers</w>
l en</w>
enor mous</w>
di ss
stuff ed</w>
h an</w>
so- called</w>
gra m</w>
Ty phoon</w>
be lly</w>
. You</w>
re mark
fr on
plan es</w>
ba k
me ...</w>
list s</w>
rain bow</w>
al oud</w>
Dut ch</w>
xi de</w>
yu an</w>
n. d.</w>
t s
. edu
signific antly</w>
pro of</w>
camer as</w>
ss ment</w>
gho st</w>
skil led</w>
ga ining</w>
mm ed</w>
w ha
fig ured</w>
photograph s</w>
comfort ably</w>
Compu ter</w>
e k
S t</w>
deli ghted</w>
h in
gre e
midd le-
Toky o.</w>
Lang 8</w>
Bangk ok</w>
si gh</w>
disci pl
a. m</w>
Thir dly</w>
mir acle</w>
min s</w>
kin iku</w>
Goo d
U L
d are</w>
gu ard</w>
G O</w>
ky o</w>
lean ing</w>
ear ned</w>
town s</w>
bi kes</w>
gh ter</w>
cri mes</w>
lec tur
en counter
Tra vel
te st.</w>
shar p</w>
co in</w>
h h</w>
dar k
mis understood</w>
Ga me</w>
Ra in</w>
b lowing</w>
memori zing</w>
night mare</w>
clo sing</w>
strate gies</w>
tre mend
C of
chor us</w>
in put</w>
inst all</w>
Yo ga</w>
Miy agi</w>
er ,</w>
vow el</w>
Tak o
lei sure</w>
T R
make up</w>
fe atur
W ea
k ing
out door</w>
ber ries</w>
su it
O per
cu cu
5 5</w>
dump lings</w>
tt on</w>
ad ju
present ations</w>
B la
v ac
Ani me</w>
k ic
wa king</w>
Movi e</w>
wa sh
in sul
yo gur
expec tation</w>
organiz ations</w>
sp len
H ei
J an</w>
un lucky</w>
ent y-
ab le
ne t.</w>
don ate</w>
g on
z i
kne e</w>
mon o
, please</w>
refer red</w>
con duct</w>
cl oud</w>
ti ally</w>
sh in</w>
mom ents</w>
ul a</w>
crimin als</w>
we ed</w>
Fin al</w>
wor thy</w>
broadca sted</w>
off ering</w>
Un der</w>
Clu b</w>
dialo gue</w>
pas sion
H mm</w>
produc tivity</w>
wait er</w>
s ings</w>
H A</w>
bio logy</w>
ci ca
M ad
d or</w>
po ster</w>
swa m</w>
, too</w>
therap y</w>
W W
de dic
en ough
medi ate</w>
troub led</w>
fal se</w>
↓ </w>
O p
snow y</w>
Ka wa
sex y</w>
pre dict</w>
her itage</w>
A A
analy ze</w>
scholar ship</w>
b ble</w>
so il</w>
mi d</w>
re less</w>
E M
goo g
gas oline</w>
en ables</w>
ste am</w>
bother ed</w>
play er_
fati gue</w>
music .</w>
R opp
ab led</w>
g est
o tic</w>
cover s</w>
adop ted</w>
of ten
a sted</w>
champi onship</w>
t ly.</w>
an ticip
ci vil</w>
hon or</w>
CP F</w>
car ing</w>
gu ese</w>
-------- </w>
pre ssed</w>
30 th</w>
over slept</w>
st er.</w>
pra ise</w>
stric tly</w>
t ate</w>
ji ma</w>
aller gy</w>
balcon y</w>
T re
Pho to
foo l</w>
bl ank</w>
ev es</w>
mo ves</w>
he ater</w>
W ay</w>
stor y
bo iling</w>
exper t</w>
/ my</w>
re fresh</w>
ver sal</w>
confli ct</w>
Nar ita</w>
gr ated</w>
Micro soft</w>
ro lling</w>
D ep
compar ing</w>
inven tions</w>
har vest</w>
3 6
proce dure</w>
insi sted</w>
tal e</w>
appreci ation</w>
mo squit
H D
sp ort
lu gg
aggre ssive</w>
den y</w>
A S</w>
list ed</w>
S un</w>
S ky</w>
- san</w>
Y ears</w>
cour se
col lected</w>
fr ench</w>
gr at
F our</w>
lo ve
L ea
co ins</w>
11 .
j in</w>
l ord</w>
jump ing</w>
quiet ly</w>
di zzy</w>
bo il</w>
Ire land</w>
c ity.</w>
col our</w>
ti an</w>
E D</w>
t ap</w>
bo x
Li ve</w>
P L
all ing</w>
I chiro</w>
divi sion</w>
summ ari
on al</w>
Da ys</w>
E ver</w>
mess y</w>
inste ad.</w>
viol ence</w>
characteris tic</w>
excite ment</w>
st ating</w>
disc oura
sy ll
bow ling</w>
un fair</w>
fi scal</w>
speci fy</w>
du ll</w>
recor ds</w>
proble m.</w>
regi ons</w>
g room</w>
m -
scri be</w>
j o</w>
off ices</w>
en der</w>
A I</w>
t ching</w>
sta ff
fi shes</w>
S pi
wel com
f ired</w>
shoc ks</w>
B ro
d am</w>
N inten
cou ld
ba ss</w>
el ly</w>
pen alty</w>
busine sses</w>
perform ing</w>
brea thing</w>
zaka ya</w>
Mon ey</w>
ww w</w>
s ,and</w>
L and</w>
sta ys</w>
experien cing</w>
J -
K ou
mi xi</w>
spe lled</w>
ab stract</w>
esti mated</w>
awar eness</w>
si te
rand om</w>
s our</w>
Gramm ar</w>
week day</w>
adequ ate</w>
2 4th</w>
well ..</w>
ba ke</w>
H EL
DA Y</w>
mi les</w>
si vely</w>
free zing</w>
Naga saki</w>
par tly</w>
ap parently</w>
---- ---</w>
ch o</w>
hang over</w>
dec lar
Inci dentally</w>
skir t</w>
Cla ss</w>
industri al</w>
defin ite</w>
Amer ica
,, ,</w>
Akiha bara</w>
c enti
Trans lation</w>
Off ice</w>
S qu
T ele
enthusias m</w>
ici ous</w>
z o
Sait ama</w>
M oun
Lat in</w>
me ets</w>
la id</w>
expendi ture</w>
Ar gent
bal lo
E le
citiz en</w>
i .
absor bed</w>
n -
represent ative</w>
situ ation.</w>
hu g</w>
commerci als</w>
gran ted</w>
F all</w>
di pl
refre shing</w>
adjec tives</w>
D eath</w>
quali ties</w>
Da vid</w>
dre ss
dr ops</w>
Q Q</w>
conclud e</w>
sub jec
en i
forei gn
A tt
fun .</w>
na il</w>
ran king</w>
sche me</w>
flow s</w>
n ing.</w>
ten sion</w>
b all
loc ked</w>
mo chi</w>
th under</w>
Bi ble</w>
home less</w>
jo y
re start</w>
re write</w>
A t
sun day</w>
Samur ai</w>
-------- -</w>
am ounts</w>
hear ted</w>
tis tic</w>
admini stration</w>
requ ested</w>
&& &&
fai th</w>
uti ful</w>
G I
P I
de sk
tom mor
boo ked</w>
aca demy</w>
Ref erence</w>
g age</w>
ca sts</w>
sh in
Glo bal</w>
B l
A D</w>
today ..</w>
it chy</w>
e ,
2 ,
7 -
en han
E 3</w>
ta g</w>
por tion</w>
P as
occa sion</w>
BT W</w>
destro y</w>
gho sts</w>
ki ss</w>
ong i</w>
inter nal</w>
bur ger</w>
cigare tte</w>
9 9
O bon</w>
certific ate</w>
K -
ab out.</w>
● </w>
min d
li ve
bil ls</w>
scol ded</w>
F ac
cal ligraphy</w>
encoura ging</w>
i e</w>
stor y.</w>
s orts</w>
Geor ge</w>
disc ussi
souven irs</w>
st an</w>
Qu een</w>
I ke
Kan to</w>
so le
uni forms</w>
bul let</w>
Gre ek</w>
は </w>
neu tr
S hu
Cam bo
16 th</w>
har a</w>
r ot</w>
Bus an</w>
gar lic</w>
person alities</w>
ele ph
T ru
ti le</w>
10 -
deli ci
P E</w>
o x</w>
ter min
tal ka
/ in</w>
wai st</w>
hour s.</w>
liqu id</w>
wa y,
soc ks</w>
mis understanding</w>
N BA</w>
zer o</w>
6 00</w>
pi e</w>
H or
brea ks</w>
regre tted</w>
Cof fee</w>
log ically</w>
B UT</w>
stra tions</w>
comm it</w>
recommen dation</w>
i est</w>
M us
worl d-
e ...</w>
bro ad</w>
mi gration</w>
invol ves</w>
pre ce
.gov /
d ur
fu ture
ac tively</w>
tit udes</w>
cheri sh</w>
ce iling</w>
inter ior</w>
sp in
r ang</w>
miser able</w>
Gener al</w>
quar ter</w>
fit ness</w>
wal ks</w>
W H
3 00
Che ck</w>
Kan agawa</w>
host el</w>
is lands</w>
d al</w>
on ..</w>
U N</w>
Ta ke
trans lations</w>
Cul ture</w>
accoun ts</w>
18 th</w>
smo kers</w>
relu ct
Ph ysi
pen cil</w>
ca fes</w>
conf use</w>
we ir
econom ical</w>
gu </w>
scri ption</w>
Plu s</w>
Braz ili
as .</w>
la in</w>
ari ous</w>
en able</w>
simp li
mb ers</w>
funda mental</w>
industri es</w>
port able</w>
c tic</w>
na sty</w>
lux ury</w>
uri ous</w>
C at
divor ce</w>
To ku
ap le</w>
mar t</w>
maxi mum</w>
stat ue</w>
ma ster
s giving</w>
Uni versi
Ex am</w>
A s
tradi tions</w>
pra ying</w>
st rea
U don</w>
l ens</w>
player_ embedded</w>
every day.</w>
sn ap
Profe ssor</w>
prof iciency</w>
hom ep
my self
shad ow</w>
fa iry</w>
g at
d ough
cafe teria</w>
ch ri
ac tiv
au to
contra dic
ki sh</w>
hu mor
brief ly</w>
Wor ds</w>
at ri
peop les</w>
Tako yaki</w>
Ja mes</w>
supri sed</w>
curi osity</w>
in et</w>
Com b
I shi
re present</w>
Fa vor
J ob
yogur t</w>
ro ts</w>
Cel sius</w>
se ven
JAP AN</w>
H ang
D ad</w>
memori al</w>
Cla us</w>
st op
swe ar</w>
bal anced</w>
expl ore</w>
10 ,000</w>
Chin a.</w>
co ordin
La w</w>
Mar k</w>
gh tly</w>
deca de</w>
ca f</w>
U eno</w>
bour ne</w>
B ul
green house</w>
Singapore ans</w>
Disney land</w>
teen ager</w>
associ ation</w>
resul ted</w>
week end.</w>
h .</w>
Chin ese
evalu ate</w>
defe ated</w>
reci pes</w>
apologi zed</w>
org anic</w>
len ses</w>
optimi stic</w>
Ma th</w>
a ward</w>
' to</w>
b ay</w>
ble w</w>
occur ed</w>
si zed</w>
na tives</w>
ke en</w>
top ic
Li br
L os</w>
prev ented</w>
modi fy</w>
self- introduction</w>
Wa sh
other s.</w>
N ak
splen did</w>
day -
S pace</w>
long- term</w>
tun a</w>
H it
ven ding</w>
cro ssing</w>
- and-
own ers</w>
O UT</w>
Ok onomiyaki</w>
contribu tion</w>
00 am</w>
continu ation</w>
Ba seball</w>
side .</w>
lun ar</w>
I -
cre ates</w>
sc u
quali fication</w>
princi pal</w>
K O
respe cted</w>
ci an</w>
electr onics</w>
lugg age</w>
no stal
doc tor
estab lish</w>
can did
terna tively</w>
Ch an
comm itted</w>
w ars</w>
C e
avoi ded</w>
Ropp ongi</w>
hea ds</w>
shi -
see king</w>
.... ....</w>
log ic</w>
Tur key</w>
ma kers</w>
memor able</w>
T E</w>
An sw
R ome</w>
weak ness</w>
Me eting</w>
. php</w>
prefer red</w>
can cell
mil lions</w>
Portu guese</w>
au </w>
mar ked</w>
M E</w>
con ta
6 -
4 7
C a</w>
bed room</w>
Ap parently</w>
reve aled</w>
preci se</w>
Joh n
ef s</w>
be ars</w>
z one</w>
un expec
hero ine</w>
re serve</w>
a ,
gu ide
stomacha che</w>
direc tions</w>
K ago
susta in
clo the
as sa
intel ligence</w>
Ob viously</w>
consist ent</w>
vi sual</w>
ad verb</w>
en g</w>
it ...</w>
deep er</w>
3 .</w>
gun s</w>
char m</w>
il er</w>
out put</w>
3 8</w>
ro ad.</w>
si mul
stor ed</w>
confir med</w>
propo sal</w>
G R
wa y,</w>
disgu sting</w>
Con gratulations</w>
dist inc
bil ingu
pro duces</w>
loo se</w>
supervi sor</w>
clear .</w>
anti -
de cent</w>
cro ss
re tire</w>
inev itable</w>
bran ches</w>
z uki</w>
Imp erial</w>
dist ant</w>
A vatar</w>
Su mo</w>
con stant</w>
can cel</w>
surpri singly</w>
cha irs</w>
re source</w>
din ing</w>
manufactur ing</w>
pa st.</w>
G y
Sel f</w>
soo oo</w>
min i</w>
bar ber</w>
3 8
C .</w>
__ _</w>
r ul
low est</w>
ser ver</w>
B an
v acc
contribu ted</w>
hair style</w>
va st</w>
simp ler</w>
rec yc
ch ir
resc ue</w>
L as</w>
te d
Per fect</w>
Bea utiful</w>
m un
p on
Asso ciation</w>
Gin za</w>
conjun ction</w>
de fine</w>
ly ..</w>
punctu ation</w>
part y.</w>
car .</w>
ser v
M it
mini mum</w>
shi p
v acu
talka tive</w>
believ es</w>
CE O</w>
n atto</w>
P ra
f ur</w>
gra mmer</w>
S ol
Con tin
S ay</w>
argu ed</w>
sha pes</w>
i pod</w>
am in</w>
lang 8</w>
con tained</w>
meaning less</w>
collec ting</w>
Egy pt</w>
ad mitted</w>
drama tic</w>
e se.</w>
S ad
L ab
ar y
acquaint ance</w>
Dr inking</w>
di ligent</w>
ha tes</w>
pri son</w>
lingu is
keep er</w>
at titudes</w>
enjo ys</w>
program me</w>
sign al</w>
re al
Some body</w>
TE R</w>
so le</w>
P ea
roo t</w>
mini mi
she ll</w>
bal let</w>
- D</w>
i zed</w>
Se eing</w>
de pic
out standing</w>
an ce.</w>
E A</w>
attra ction</w>
immigr ants</w>
secon d-
e ag
re fu
non- Japanese</w>
re ward</w>
aband oned</w>
dan ces</w>
begin ners</w>
back grounds</w>
Pr ince</w>
puni shment</w>
sc ope</w>
P sycho
crea tivity</w>
ju di
gen re</w>
one self</w>
ra ti
ty pho
Wi i</w>
quali fied</w>
4 8
Veg as</w>
down .</w>
imp oli
ca se.</w>
o v
le an</w>
- _-</w>
Afri can</w>
en a</w>
s _
uni verse</w>
spee ches</w>
e. g.</w>
cancell ed</w>
Tech n
s nee
scri p
bi e</w>
Fu ture</w>
Kyu shu</w>
ber t</w>
dre ssing</w>
mur der</w>
de a
con serva
imp orted</w>
fac tories</w>
tra cking</w>
Aca demy</w>
man agers</w>
Mar athon</w>
hesit ated</w>
K Y
t zer
Ninten do</w>
head ing</w>
Communi cation</w>
quo tes</w>
illu stration</w>
tal s</w>
br ands</w>
Buddhi sm</w>
pl um</w>
W oo
un forge
inter mediate</w>
Y en</w>
pp ers</w>
Favor ite</w>
Sup er</w>
con temporary</w>
H om
sal mon</w>
3 9
na ked</w>
H I
Te mple</w>
T ree</w>
い </w>
ten der</w>
te sted</w>
orchest ra</w>
hop e
J en
eri a</w>
lim it
per mission</w>
flav ored</w>
conf lic
encoura ges</w>
G al
tion ing</w>
B on
d an</w>
u ll</w>
bod y.</w>
ki -
supp le
Tal k</w>
princi ple</w>
ga me.</w>
compla ints</w>
Boo ks</w>
chor es</w>
ser en
ten s</w>
t down</w>
con text.</w>
import antly</w>
Re la
peri o
liqu or</w>
celebr ating</w>
arri ving</w>
Wor d</w>
de er</w>
P lan
gas es</w>
g inger</w>
G on</w>
ch r
cli p</w>
bak ery</w>
H ome
che f</w>
pres ence</w>
Exc use</w>
lectur er</w>
fer tili
Elec tr
est ate</w>
stere o
rail way</w>
K now
ste ady</w>
expen si
S ep</w>
ly ,</w>
alco holic</w>
K en</w>
Uni on</w>
off .</w>
oblig ation</w>
increa singly</w>
car es</w>
E f
Va cation</w>
Ｉ </w>
desper ate</w>
Th en
En d</w>
j unk</w>
tu s</w>
blan ket</w>
char ity</w>
demon str
sp reading</w>
con tain
Con ver
sal ty</w>
ch ick
p ad</w>
constru cted</w>
nutri tion</w>
Swi tzer
bi sh</w>
S O</w>
peri ods</w>
sli m</w>
mo tion</w>
Bo y</w>
Bus y</w>
sai d.</w>
laugh ter</w>
UN I
sincer ely</w>
F an
d as</w>
Fl ori
favor ites</w>
tw enty-
spe ct
example ,</w>
sett led</w>
innova tive</w>
29 th</w>
in tense</w>
ht ml</w>
pra yed</w>
motiv ate</w>
sh ore</w>
insp iration</w>
ne ck
mm mm
squi to</w>
00 pm</w>
ab bed</w>
c ers</w>
U E</w>
T own</w>
fa st
wi reless</w>
skill s.</w>
tra ding</w>
sleep .</w>
soli d</w>
vol can
3 7
impre ssions</w>
vir tual</w>
time ,</w>
lar ge
mo vements</w>
pro ved</w>
Rep u
b ound</w>
cool ant</w>
k an</w>
A P</w>
m ans</w>
pri est</w>
drama tically</w>
Ry oma</w>
le vel
pla cement</w>
practic es</w>
17 th</w>
a tional</w>
champi on</w>
sop hom
n i</w>
Fili p
p ir
ul ated</w>
l ar</w>
childr en.</w>
under ground</w>
A gency</w>
reluct ant</w>
mean t.</w>
ber g</w>
flo ating</w>
a way.</w>
sandwi ch</w>
per man
or ters</w>
Ho sp
inj ury</w>
thor oughly</w>
.gov .sg/
colle ges</w>
se ctions</w>
offic e.</w>
difficul t.</w>
bath s</w>
B ay</w>
lon gest</w>
sel ler</w>
ach el
anima tions</w>
grap her</w>
G L
H ong
jus tice</w>
ste w</w>
3 5
h ired</w>
imp er
a shi</w>
audi o
infec ted</w>
month s.</w>
Medic al</w>
remark able</w>
suc ks</w>
oc top
ke i</w>
B ic
celebri ties</w>
victi m</w>
bath tub</w>
tru ck</w>
rememb ering</w>
L an
strop he</w>
le tting</w>
ke t
candid ates</w>
ton i
dio xide</w>
ali ze</w>
R aku
check up</w>
nation ality</w>
B on</w>
reco very</w>
Mel bourne</w>
Wash ington</w>
ach i</w>
m ...</w>
R oc
k on
mon ster</w>
el ders</w>
gra sp</w>
ob a</w>
Kago shima</w>
arti ficial</w>
E T</w>
ed it</w>
Wea ther</w>
op posed</w>
Ja zz</w>
dri ven</w>
D A</w>
answ ering</w>
imp ati
prof its</w>
o sa
evol ution</w>
s ne
l st</w>
de lay</w>
① </w>
adop t</w>
ele gant</w>
ac cor
stri ke</w>
ele ven</w>
promo ted</w>
pr ince</w>
Ma ster</w>
-------- ---</w>
long .</w>
gr ay</w>
critici zed</w>
pe ac
repe ating</w>
st mas</w>
E .</w>
bon us</w>
secon dary</w>
D ic
ma i
dr um</w>
gen es</w>
shri mp</w>
K ur
Mei ji</w>
7 00</w>
Ac tu
J P
af for
athle tes</w>
satur day</w>
all y,I</w>
scienti st</w>
welcom ed</w>
student s.</w>
encounter ed</w>
sen ti
ob li
Electri c</w>
interpre ter</w>
Ai chi</w>
F R</w>
Spe e
expo sure</w>
for getting</w>
travel s</w>
ob served</w>
or able</w>
al one.</w>
a me
H en
d ing.</w>
vi al</w>
any more.</w>
O x
poe try</w>
L ord</w>
bor der</w>
Ste ve</w>
con qu
bag gage</w>
vi vid</w>
oun d.</w>
se ..</w>
happ iest</w>
de part
dark ness</w>
correc ts</w>
har mon
sme lled</w>
a mon
Cer tainly</w>
Sh into</w>
ar chi
c ow</w>
Pla ying</w>
Mi ch
st ering</w>
laun ch</w>
conne cting</w>
be st.</w>
frighten ed</w>
con ci
de vi
condition ing</w>
3 6</w>
E ating</w>
intel lec
han dic
M P
thr own</w>
in di
n y
6 5
con son
pe cu
op o
K .</w>
hir agana</w>
de sp
ke mon</w>
Rob ert</w>
ob se
manu al</w>
Sa me</w>
he ating</w>
er ent</w>
that ..</w>
O ops</w>
like .</w>
ign or
c able</w>
lonel iness</w>
G ot</w>
Bab y</w>
1 10
n ine
r ang
close st</w>
interest ing.</w>
3 4</w>
exten ded</w>
develop ments</w>
li ber
influ en
ol s</w>
nu ance</w>
k usa</w>
US D</w>
back .</w>
prohi bited</w>
as a</w>
Fr ankly</w>
l end</w>
b low</w>
ste pped</w>
O f
An dro
discussi ons</w>
Hir agana</w>
re jected</w>
mo l
is ol
ate d.</w>
explo sion</w>
Sh ort</w>
al ds</w>
sa shimi</w>
ai ms</w>
bo ards</w>
C y
ac tu
possi bilities</w>
' and</w>
19 6
resi st</w>
Be li
edi tor</w>
supp orts</w>
pe ak</w>
on s.</w>
C A</w>
st opping</w>
i. e.</w>
occu pi
resear ching</w>
ligh t
house wife</w>
def ense</w>
ri ce
health ier</w>
pro jec
net working</w>
mi ld</w>
199 9</w>
Some how</w>
amb ul
U l
s ,but</w>
resear ched</w>
Y am
tr o</w>
pha se</w>
wr apped</w>
ani um</w>
up dated</w>
mo tor</w>
cof fe
any thing.</w>
inf eri
an cy</w>
Dor ae
ed a</w>
fi ref
Ser vice</w>
lu ckily</w>
decor ate</w>
har mony</w>
Ch ange</w>
occupi ed</w>
corpor ate</w>
lo gged</w>
puzz le</w>
Ch u
z ard</w>
af fair</w>
N A</w>
descri p
S how</w>
ok u
un sure</w>
bu k
e ur</w>
particip ating</w>
escap ed</w>
ori ent
dra gon</w>
F il
a mi
re solve</w>
Bar cel
Fi re
ke -
prop or
Com ing</w>
sinc ere</w>
Tea ching</w>
low .</w>
swe at
cosme tics</w>
anim ated</w>
S oc
g ently</w>
pr oo
medi um</w>
sna ke</w>
docu mentary</w>
sp an</w>
ch u</w>
fra gr
. c
Mr s</w>
sub stan
car rots</w>
comp rom
teach er.</w>
/ to</w>
Switzer land</w>
sli de</w>
tal ents</w>
ba shi</w>
comp ul
gl ance</w>
tat su</w>
ri sh</w>
S ch
al a</w>
dis cover
quarre l</w>
n abe</w>
a j
w ol
T op
ti ming</w>
Net work</w>
curri cul
ir re
Ro ad</w>
cra w
Swe den</w>
foun ded</w>
te am
state ments</w>
z ed.</w>
Asa kusa</w>
h s</w>
inde x</w>
ur gent</w>
go ssi
199 8</w>
ste el</w>
fla sh</w>
Ha ma
deli cate</w>
Y e
ki .</w>
b att
costu mes</w>
f ate</w>
e ic</w>
thre at</w>
incredi bly</w>
instruc tions</w>
air line</w>
whi le.</w>
hor ses</w>
wait ress</w>
pl ates</w>
opp onents</w>
air ed</w>
Or g
facili ty</w>
che ered</w>
appe aring</w>
tane ously</w>
3 7</w>
ul ate</w>
grand pa</w>
typic ally</w>
ea stern</w>
out come</w>
wi d
sub ur
ur ant</w>
moun tain
pud ding</w>
enter pri
TH </w>
pain ter</w>
interview ed</w>
s wine</w>
impoli te</w>
ic e-
eth ical</w>
su spect</w>
C ooking</w>
ran ked</w>
b i</w>
tremend ous</w>
in ti
de serve</w>
W OR
Ad d</w>
Singapore an</w>
be at
cur ed</w>
le mon</w>
clari fy</w>
Andro id</w>
du res</w>
ta i
car ed</w>
ar e.</w>
mu ff
We dding</w>
twe et</w>
a ss</w>
Wi sh</w>
un employment</w>
exi sted</w>
er ,
frequ ent</w>
ph one.</w>
confu sion</w>
dest iny</w>
ir a</w>
commu ting</w>
photo graphy</w>
than ked</w>
here ...</w>
mother -in-law</w>
ver b.</w>
Ar tic
A k
conserva tive</w>
fla g</w>
po is
F ast</w>
IC A</w>
necessi ty</w>
exa m.</w>
Thank sgiving</w>
B or
Fe el</w>
Ex cept</w>
Temp erature</w>
ap p</w>
water melon</w>
automa tic</w>
Origin ally</w>
in disp
att acks</w>
G OO
Fir st
deci ding</w>
Any one</w>
use d.</w>
prote cted</w>
sub mitted</w>
th ful</w>
ab use</w>
regu lations</w>
re tri
St or
Kor ea.</w>
americ an</w>
fol k</w>
0 1</w>
short -
w ings</w>
7 5</w>
, when</w>
guaran tee</w>
at tribu
Fi ve</w>
A ra
new s
mon s</w>
imp ly</w>
resear cher</w>
j </w>
prin ter</w>
predic ted</w>
di verse</w>
langu age
ton ese</w>
p sy
o logical</w>
2 1
obst acles</w>
IM E</w>
Ea ster</w>
Re view</w>
sh out</w>
Pro ject</w>
w ou
0 3</w>
Wal king</w>
s lower</w>
influ ences</w>
ob servation</w>
ang el</w>
ic ed</w>
here ..</w>
gu chi</w>
- I</w>
coun sel
Ni k
col labor
end less</w>
s orrow</w>
C ent
care less</w>
OK .</w>
appe al</w>
offic ers</w>
26 th</w>
access ories</w>
B ased</w>
d ong</w>
Pr in
m .
Mi chi
J O
summ er.</w>
bur g</w>
va cations</w>
down loaded</w>
homep age</w>
inter val</w>
j et</w>
We b
en rolled</w>
9 9</w>
leg end</w>
inf o</w>
de sert</w>
listen er</w>
Spe ci
mp ed</w>
whe el
T T</w>
ther mal</w>
fir st.</w>
super sti
tonigh t.</w>
E arly</w>
sorr y.</w>
maj ored</w>
P R
after shocks</w>
c .</w>
tempor arily</w>
week ly</w>
categ ory</w>
win ds</w>
progra mmer</w>
Barcel ona</w>
' in</w>
fu ton</w>
po lish</w>
Dec </w>
op ens</w>
Gu am</w>
Libr ary</w>
ac cessi
ti ger</w>
stud y.</w>
u ts</w>
vo id</w>
Ex peri
D rea
s tically</w>
S har
V O
le e</w>
rain .</w>
l -
pub lish</w>
ac compani
unexpec tedly</w>
V o
snap vine
t ough
re war
require ment</w>
passion ate</w>
tri ck</w>
hus bands</w>
snapvine .com</w>
Brazili an</w>
h itting</w>
c kets</w>
op en-
flow ing</w>
it ,</w>
th umb
graph ics</w>
Sa fe
ari ties</w>
us an</w>
thi er</w>
cr ops</w>
Filip ino</w>
Su rely</w>
y ak
cei ved</w>
pour ed</w>
origin ated</w>
tri cky</w>
ex tend</w>
ul ty</w>
mp ire</w>
por ce
Ma sa
secre tly</w>
unforge ttable</w>
tri vial</w>
oper a</w>
an e
ma iled</w>
time -
be e</w>
Uk ra
arri val</w>
o h
ligh ter</w>
vi o
e ks</w>
re sting</w>
athle tic</w>
S oba</w>
° </w>
pupp y</w>
spo t
U. S</w>
fr y</w>
Mo der
bo om</w>
expen se</w>
ter i
Doc tor</w>
kat akana</w>
co a
opp onent</w>
VER Y</w>
stud ing</w>
posi tively</w>
pronunci ations</w>
prom ising</w>
sty lish</w>
mush rooms</w>
prin cess</w>
gre etings</w>
new s.
Hak one</w>
ti res</w>
exc lu
pan ic</w>
inci dents</w>
diver ted</w>
all y
T un
IS H</w>
C lo
A ging</w>
3 ,
4 .</w>
H H
mix ture</w>
G .</w>
/www. snapvine.com</w>
mosquit oes</w>
histor ic</w>
re late</w>
arrang ement</w>
s .I</w>
bu ffe
ch in</w>
fac ial</w>
respec tively</w>
neg lected</w>
/index .html</w>
li v
associ ate</w>
igh t
st a</w>
Cambo dia</w>
tion ist</w>
form at</w>
tag s</w>
com ma.</w>
atel li
Her itage</w>
V ir
cooper ate</w>
sse s.</w>
fe males</w>
t ank</w>
Dai ly</w>
Answ er</w>
shop .</w>
tow el</w>
J unior</w>
f ab
ㅜ </w>
Se ason</w>
T- shirts</w>
bri d</w>
f s</w>
mo squito</w>
ste al</w>
Job s</w>
emp eror</w>
ill a</w>
am using</w>
L .</w>
play ground</w>
off en
coo ling</w>
requ ests</w>
' s.</w>
s ms</w>
spiri tual</w>
gre et</w>
sandwi ches</w>
occup ation</w>
fun n
fin als</w>
sub stitute</w>
---------------------------------------------------------------- --------------------------------
in spe
stru ction</w>
H ard</w>
lic ence</w>
atta ch</w>
fami li
selec tion</w>
Ku ma
pump kin</w>
writ ings</w>
under graduate</w>
respon ses</w>
h its</w>
sh ee
Lo ts</w>
man aging</w>
B il
buk uro</w>
M R
he al</w>
4 6
pow er
tur tle</w>
h ers</w>
Pro ble
ar tistic</w>
F F
sal aries</w>
iP hon
appli ances</w>
ha m
as es</w>
memori zed</w>
oper ations</w>
gener ous</w>
St op</w>
an as</w>
par en
bu t.</w>
8 3</w>
Tea chers</w>
abbrevi ation</w>
30 am</w>
ti cons</w>
sophom ore</w>
persu ade</w>
on a
Bi ll</w>
T AK
u to</w>
pe .</w>
ce s.</w>
li ps</w>
dis po
con st
ene mies</w>
versi ons</w>
ma gn
is ...</w>
Argent ina</w>
H ur
pre positions</w>
rati o</w>
S mall</w>
Su mm
hori z
val .</w>
Sci enti
hosp itali
sun rise</w>
Gre ece</w>
more over</w>
② </w>
Dorae mon</w>
19 5
7 7
sli ced</w>
beauti ful.</w>
land .</w>
ser vic
Won der
la ce</w>
b ones</w>
Japan ,</w>
evalu ation</w>
ar ro
in complete</w>
tab le
28 th</w>
SF R</w>
U D
b or</w>
I wa
asse ssment</w>
do or
ke d.</w>
D y
A Y</w>
Hon da</w>
Na me</w>
/ en.wikipedia.
lin ks</w>
Con cer
Fu ji
bu gs</w>
Angel es</w>
in ct</w>
rom ance</w>
easi est</w>
che ss</w>
in ju
it ude</w>
stron gest</w>
/b p</w>
Pre sent</w>
jus ti
re solutions</w>
/en.wikipedia. org</w>
mar vel
Demo cratic</w>
bilingu al</w>
ex changing</w>
to ast</w>
comedi an</w>
every time</w>
person nel</w>
ani sm</w>
ambigu ous</w>
pronoun ciation</w>
middle- aged</w>
approach ed</w>
channe ls</w>
ro lls</w>
ski pped</w>
sy mb
ceremon ies</w>
------------ </w>
lat e.</w>
ca sually</w>
b ye
day .
cul ture
per fume</w>
coinci dence</w>
su es</w>
fru it
S her
proce dures</w>
one theless</w>
si um</w>
b in</w>
/ 2
up coming</w>
v ard</w>
c ap</w>
P ast</w>
re union</w>
b ore
Toky o
main taining</w>
cough ing</w>
ow .</w>
f abul
l ine.</w>
ta ste
u ed</w>
ma gnific
Aw SF
quar ters</w>
coo ker</w>
Ca fe</w>
k er
octop us</w>
Wil li
Yester day,I</w>
re act</w>
mean s.</w>
C our
shee ts</w>
hot test</w>
divi de</w>
profe ssion</w>
si ster
ba se
ki m
deb t</w>
Z Z
no tic
shi .</w>
Mid dle</w>
exp an
Can tonese</w>
gi an</w>
Ma j
mu </w>
par ked</w>
reali se</w>
porce lain</w>
ori ented</w>
Be tty</w>
ene wa
G aga</w>
C ra
pe tro
ob tained</w>
r ank</w>
e go</w>
oka y.</w>
ha mp
humor ous</w>
r o</w>
ri vers</w>
vege t
fini sh
or a</w>
/ 9
qu et</w>
z i</w>
V e
stea med</w>
Ukra ine</w>
life time</w>
web -
mechan ical</w>
equ ally</w>
t ang
cell -
tar o</w>
na i
consi st</w>
un till</w>
pac king</w>
O cean</w>
more ..</w>
Mar ket</w>
W all</w>
ga mbling</w>
sw ing</w>
trop ical</w>
sho e</w>
4 2</w>
Li ber
pa irs</w>
au ction</w>
cont acted</w>
4 4</w>
boo st</w>
speciali st</w>
NO TE</w>
religi ons</w>
8 4</w>
/ twi
in tri
gu es</w>
fa thers</w>
F la
far mer</w>
six th</w>
re phrase</w>
le gi
PC s</w>
1 ,000</w>
S tra
necess ary.</w>
con grat
Di rec
P an
Brea k</w>
0 9
Diff erent</w>
tr ance</w>
mistake s.</w>
L I
minu tes.</w>
L ou
ca st
ment ing</w>
al tern
hon ey
K now</w>
frustr ating</w>
rep ort
fin ed</w>
' it</w>
bit ten</w>
Pre sent
can .</w>
frequ ency</w>
fi ce</w>
straw berries</w>
Pi ece</w>
W ere</w>
financi ally</w>
ec lip
Bu il
Si mil
Repu blic</w>
impro ves</w>
streng then</w>
b anks</w>
li ver</w>
in sufficient</w>
diff er</w>
the .</w>
for um</w>
Ch r
pre si
str ing</w>
C re
esti mate</w>
d ough</w>
sc oo
concentr ated</w>
sp la
typho ons</w>
occa sions</w>
for ty</w>
O pen</w>
U r
st in
fo x</w>
in expensive</w>
Spe cial</w>
libr aries</w>
c ans</w>
bo sses</w>
Tom oko</w>
comm ent
me tap
in jec
7 5
Introduc ing</w>
C M</w>
T en</w>
gi ant</w>
o to</w>
offici ally</w>
Bo ys</w>
un common</w>
Gr oup</w>
ques tion.</w>
sli pped</w>
modi fied</w>
go ds</w>
clo set</w>
hi ding</w>
mis understand</w>
condition ers</w>
Par t
er n
Tur kish</w>
t ches</w>
consequ ence</w>
shou ting</w>
interpre tation</w>
To day
Fu ll</w>
be aches</w>
obe y</w>
plea se.</w>
beauti fully</w>
continu ed..</w>
/ 5
st ages</w>
D E
travel ers</w>
s .com</w>
so ..</w>
qui z</w>
3 9</w>
achel or</w>
es the
dist rac
inv ent
wor m</w>
子 </w>
responsi bilities</w>
Y ours</w>
L y
ba king</w>
year- end</w>
y uk
old- fashioned</w>
ini tial</w>
S ong</w>
語 </w>
To shi
sha me
2 2nd</w>
Ha haha</w>
cha ir
consu mer</w>
collap se</w>
ca ve</w>
sh ook</w>
eng aged</w>
a da
G PS</w>
et ary</w>
sal es
L E</w>
kill er</w>
blo cks</w>
UNI Q
glob alization</w>
R unning</w>
behavi ors</w>
astoni shed</w>
col on</w>
s word</w>
o i</w>
sho ts</w>
differ ent.</w>
AB C</w>
100 0
Fuku i</w>
abo ve.</w>
holi day.</w>
Den mark</w>
desi gners</w>
V oc
to x
certi fication</w>
watch es</w>
pur ple</w>
ingredi ent</w>
bo xing</w>
27 th</w>
Consi dering</w>
ear li
Fan ta
recommen dations</w>
se v
behavi our</w>
don ation</w>
land lord</w>
Guang zhou</w>
fu cking</w>
V ide
tt ers</w>
dr ow
investi gation</w>
plur al.</w>
brow sing</w>
Flori da</w>
own .</w>
lead ership</w>
ki e</w>
be ers</w>
S ony</w>
bla med</w>
TE D</w>
Po kemon</w>
ki do</w>
symp athy</w>
imple ment</w>
accur ately</w>
isol ated</w>
se ttle</w>
mu lation</w>
compla int</w>
Ques tions</w>
ん </w>
1. 5</w>
radio activity</w>
argu ments</w>
coo ks</w>
accomp lish
fe l
barri er</w>
, if</w>
Lo st</w>
phra se.</w>
ca shi
la ge</w>
ab ata</w>
fl ood</w>
though ..</w>
Pea ce</w>
R en
pla cing</w>
ben ch</w>
ex ternal</w>
bu ck
En joy</w>
prob ability</w>
A W
sel ves.</w>
ou twe
par t.</w>
din ner.</w>
underst ands</w>
Indone sian</w>
surroun dings</w>
pecu liar</w>
♥ </w>
m and
black out</w>
glo ves</w>
predic table</w>
in fo
new ly</w>
W ant</w>
tru e.</w>
lin ked</w>
be ating</w>
vine gar</w>
compul sory</w>
stic ky</w>
lim its</w>
me ch
gu m</w>
hu mble</w>
Cur ry</w>
Cha mpi
P T</w>
al ternatives</w>
consu lt</w>
r y.</w>
/ 200
su ited</w>
N atto</w>
un stable</w>
Y ang
wor ding</w>
un k
dedic ated</w>
bil li
ic e
fri dge</w>
En try</w>
gr ab</w>
Gr and</w>
J I</w>
ur s</w>
re ar</w>
Ra dio</w>
ge on</w>
ru mor</w>
run ners</w>
M B</w>
ep ing</w>
the ories</w>
199 0</w>
wi l
cu z</w>
speciali zed</w>
litt le.</w>
make -up</w>
Spee ch</w>
me et
offici als</w>
cat a
sp y</w>
rea ching</w>
se l</w>
tal es</w>
T sunami</w>
cu ts</w>
fir st-
umbre lla
Safe ty</w>
ki dding</w>
sha mp
h op</w>
se mic
B E</w>
S ei
girl .</w>
dri ves</w>
speci alty</w>
tire d..</w>
ma sks</w>
can ts</w>
un fortunate</w>
mu tual</w>
and ..</w>
ens able</w>
ta x
g all
equi pped</w>
Hea ven</w>
a x
- type</w>
hesi tation</w>
half way</w>
p ounds</w>
preci sely</w>
mo on
estab lish
again ..</w>
uri ty</w>
Japanese- style</w>
snow s</w>
desi res</w>
he ated</w>
No. 1</w>
pri or</w>
li um</w>
Sec re
/ 2011</w>
fabul ous</w>
warm th</w>
sto le</w>
desper ately</w>
pur se</w>
G la
soo o</w>
d ,I</w>
cel er
C ro
de vote</w>
si gh
dolph ins</w>
I ce</w>
Cor por
Re ad</w>
inter s</w>
eag er
Mon go
li d</w>
r enewa
scul p
r oughly</w>
revi se</w>
investi g
ac cent
sacri fice</w>
dat ab
ment s.</w>
ow ard</w>
L oc
s atelli
sea weed</w>
Chin ese.</w>
wr ap</w>
pow ers</w>
du </w>
universi ty
g st</w>
ste st</w>
brow ser</w>
4 1</w>
cyc l
Kan a
en roll</w>
T raining</w>
Te a</w>
pe de
wa s.</w>
conflic ts</w>
wa st
ci st</w>
Exa mination</w>
Ox ford</w>
S orr
brea st</w>
serva tions</w>
Pre ss</w>
over .</w>
mon d</w>
atten dant</w>
na ugh
spe ll
sur ed</w>
al es</w>
mon os</w>
theat ers</w>
radi sh</w>
1 &
y ang</w>
less ness</w>
vul ner
gg ling</w>
remo te</w>
yo shi</w>
D ance</w>
pre su
Intro duce</w>
Hal f</w>
GOO D</w>
Recently ,I</w>
g li
ali sts</w>
with .</w>
bo thers</w>
Di sc
e dition</w>
the mes</w>
dep th</w>
s ers</w>
re views</w>
car rot</w>
t wins</w>
Econom ics</w>
ni e</w>
Vic tori
us ages</w>
preten ded</w>
Y an
worth while</w>
Ya kiniku</w>
rec k
Wat ch</w>
me -
198 6</w>
ad o
joy ful</w>
for ests</w>
' It</w>
bi a</w>
exce ssive</w>
lo ading</w>
bu g</w>
un consciously</w>
0 7</w>
grap es</w>
depar ture</w>
C A
, It</w>
scen ari
critici sm</w>
cous ins</w>
ō </w>
tea mm
help .</w>
inj a</w>
albu ms</w>
be st
However ,I</w>
Smi th</w>
did nt</w>
' S</w>
Al ternatives</w>
ai med</w>
du b
fri day</w>
season al</w>
LO VE</w>
pro ven</w>
fa ther
be l
pour ing</w>
K an</w>
col our
smar t
C l
pod cast</w>
lux urious</w>
purcha sed</w>
AK B
Bea u
dress er</w>
1 20</w>
posse ssive</w>
woo ds</w>
con taining</w>
indisp ensable</w>
clai ms</w>
pr ene
p ill
c lar
stor e.</w>
rub ber</w>
Pla y
mar tial</w>
3 1st</w>
b in
ss ors</w>
le ..</w>
D inner</w>
B all</w>
y /
z ar
se chi</w>
though t.</w>
Ei ken</w>
butter fly</w>
R& D</w>
respe ct
rest room</w>
Ma o</w>
m ,</w>
emo ticons</w>
me ans
Regar ding</w>
pronoun s</w>
pede stri
t ing.</w>
affor dable</w>
water .</w>
consider able</w>
L earn</w>
f i</w>
va cation.</w>
apart ments</w>
do g
pu ri
Fun ny</w>
pri ced</w>
p g</w>
I '
credi ts</w>
Bo b</w>
decor ations</w>
kil ls</w>
Psycho logy</w>
va in</w>
new s/
ony mous</w>
ser ted</w>
may on
curricul um</w>
imp o
Re al</w>
b less
critici ze</w>
gra ce
Ti ger</w>
mista ken</w>
a tions.</w>
before hand</w>
profession als</w>
girl friends</w>
intro duces</w>
ru g
Pla ce</w>
magnific ent</w>
S on
gre ss</w>
examin ed</w>
restaur ant.</w>
ff y</w>
soldi er</w>
J ICA</w>
Ki mono</w>
deci des</w>
er ...</w>
An ne</w>
Th om
wher e.</w>
I rish</w>
flo ors</w>
/ at</w>
imit ate</w>
g ary</w>
ri ses</w>
ac id</w>
magn itude</w>
en titled</w>
proo f
ambul ance</w>
hh h</w>
fa st.</w>
subsi dies</w>
be ar
C ir
seren di
postp oned</w>
shel ter</w>
bro ther
St one</w>
Bel ow</w>
posse ss</w>
ad di
Is la
cra z
eclip se</w>
passeng er</w>
9 5</w>
m ud
H in
s que</w>
survi ved</w>
tra in.</w>
cour se.</w>
visi ts</w>
restri cted</w>
impro vements</w>
G hi
appli cants</w>
constru ct</w>
t sun
rec ently
Hmm ..</w>
Mi d-
p ale</w>
ic .</w>
her oes</w>
2 3rd</w>
na ise</w>
cri pt</w>
devo ted</w>
opini on.</w>
cul ture.</w>
under go</w>
の </w>
Ti m</w>
inter face</w>
ill nesses</w>
st in</w>
A ssi
Ma ma</w>
sti r
eng er</w>
ti dy</w>
s in</w>
ow ed</w>
G M</w>
whi lst</w>
fir mly</w>
.co .
Be gin
C at</w>
hun t</w>
eye sight</w>
publi shing</w>
S aka
adm ired</w>
comp any
identi fication</w>
Le ague</w>
stor age</w>
Bal i</w>
ref lected</w>
obse ssed</w>
Some time</w>
pre judi
cr ab</w>
S W
consu me</w>
immedi ate</w>
prefec tures</w>
lo ve.</w>
sleep s</w>
B ank</w>
S on</w>
er ts</w>
v ary</w>
advan cement</w>
coun ted</w>
F ew</w>
cell ular</w>
ak ers</w>
B as
Moun tain</w>
y cle
form ing</w>
Hosp ital</w>
visi tor</w>
mil li
no ve
mu d</w>
Au g</w>
or ang
eleph ant</w>
ro cks</w>
Yo shi
journ al
yo za</w>
Squ are</w>
0 9</w>
tan cy</w>
sli p</w>
gentle man</w>
out line</w>
si t
al read
sa d
oli tan</w>
inten tionally</w>
A part</w>
icul t</w>
un likely</w>
good- bye</w>
K ab
cra sh</w>
buffe t</w>
9 00</w>
che ering</w>
par alle
ach ing</w>
t w</w>
perman ent</w>
to ...</w>
prefer ence</w>
supp lies</w>
uk a</w>
crea tion</w>
Now ,I</w>
often .</w>
auth ority</w>
I P</w>
v ity</w>
si on.</w>
web site.</w>
ca s
0 2</w>
hon ori
Y uki</w>
can di
mon keys</w>
disappoin ting</w>
K FC</w>
Mus li
vi et</w>
logi sts</w>
impati ent</w>
kno cked</w>
allow ing</w>
high school</w>
pal ace</w>
Au ck
Tra ditional</w>
se -
he at
ch -
wa ge</w>
r ope</w>
S et
Au stri
AKB 48</w>
E T
m ere</w>
institu tions</w>
es .
sc atter
pe ti
pil low</w>
don ated</w>
strugg led</w>
communi ties</w>
C ze
su spe
stea dily</w>
F oun
bac teria</w>
lear n
Bhu tan
attra cts</w>
Moder n</w>
t su</w>
consu ming</w>
Soc cer</w>
shi p.</w>
inter act</w>
sta tion
consci ousness</w>
Hi ,</w>
Ro gers</w>
cra shed</w>
u .</w>
de e
Un der
Ste p</w>
/ html</w>
EN T</w>
Movi es</w>
Tan abata</w>
Tr an
S k
shi on</w>
ur ge</w>
gra ding</w>
de als</w>
acquaint ances</w>
S now
Ch icken</w>
Tan z
hur ried</w>
King dom</w>
lan e</w>
sha ved</w>
0 s</w>
displa ys</w>
ly ,
ven ue</w>
hi p</w>
hon est
Stud ent</w>
imp li
con no
rac ing</w>
b ang
Z h
pra yer</w>
wan t.</w>
O taku</w>
accompani ed</w>
interview er</w>
C C
m ingly</w>
f .</w>
star ed</w>
ma sters</w>
S F</w>
P ur
ve d.</w>
Pro vi
absor b</w>
out let</w>
Comb ine</w>
M t.</w>
featur ed</w>
challeng ed</w>
influen za</w>
survi val</w>
Har vard</w>
tack le</w>
lan ter
reac tions</w>
Michi gan</w>
t ance</w>
medic ines</w>
ω </w>
com er</w>
I zakaya</w>
d ules</w>
ing ,I</w>
princi ples</w>
le d.</w>
nic er</w>
absolu te</w>
lo an</w>
C R
imp ul
overwhel med</w>
UNIQ LO</w>
j ing</w>
resul ting</w>
pi le</w>
es ...</w>
sub tle</w>
cal ori
Pl an</w>
accommo dation</w>
job -
ver i
ac celer
AL L</w>
enough .</w>
o car
gen u
Ghi bli
p per
el abor
In du
reduc tion</w>
Beli eve</w>
intellec tual</w>
li p</w>
broad en</w>
t aller</w>
mayon naise</w>
rep orter</w>
Ken do</w>
flu te</w>
Oka yama</w>
D J</w>
weal thy</w>
wor ship</w>
mit ting</w>
vi </w>
ele ment</w>
En trance</w>
shi ma
man kind</w>
un its</w>
pil ot</w>
Ex po</w>
i d
org ans</w>
,000 yen</w>
sli des</w>
comedi ans</w>
sh er</w>
re duces</w>
e missions</w>
amat eur</w>
Ea stern</w>
Han ami</w>
Pre par
jo king</w>
con ce
liter al</w>
renewa ble</w>
art work</w>
treat ments</w>
roo ts</w>
death s</w>
an der</w>
P ow
haha .</w>
I B
ter ed</w>
s ....</w>
imp ort</w>
war ned</w>
cap tain</w>
form .</w>
f erry</w>
lat er.</w>
symb ols</w>
6 6</w>
U R</w>
mon day</w>
be d.</w>
chil d.</w>
expre ss
J ud
Cla ssi
har d-
ok i</w>
de po
Fri end
travel led</w>
i or
though ...</w>
pur su
. 1</w>
AT ION</w>
defe at</w>
ar oma</w>
------------ --</w>
ong -
atu re.</w>
But ,
ren ew
vacu um</w>
foc uses</w>
shi pping</w>
ti ve
se mi-
that ...</w>
America .</w>
Org ani
di arr
reali zing</w>
compu ter
S mo
.... .....</w>
vir tu
2 50</w>
cockro ach</w>
wh it
ei ther.</w>
ha shi</w>
ow e</w>
T ouri
-- I</w>
th ick
Auck land</w>
Happ iness</w>
easi ly.</w>
H il
ta sting</w>
mor s</w>
terrori st</w>
sh it
indepen dence</w>
si ghts</w>
ta ils</w>
D ol
tu </w>
a stron
co stly</w>
terrori sts</w>
pit ch</w>
C E</w>
amon gst</w>
naugh ty</w>
tommor ow</w>
an s.</w>
hun ger</w>
EN GL
mo ther.</w>
Econom ic</w>
en vious</w>
in door</w>
encoura gement</w>
town .</w>
Gu ess</w>
con fec
en vel
a o
can ned</w>
weap on</w>
Re spon
oli c</w>
cosme tic</w>
X X</w>
oo ps</w>
fa stest</w>
du ties</w>
je wel
Hello ,</w>
O ni
enter taining</w>
s ors</w>
appro val</w>
snow board</w>
dipl om
co zy</w>
Po int</w>
r ap</w>
Ca mb
Emp lo
hambur gers</w>
Th r
ba thing</w>
I II</w>
fi ve-
fini shes</w>
chri stmas</w>
every one.</w>
com positions</w>
hand made</w>
L ev
movi es.</w>
prev enting</w>
produc er</w>
import ant.</w>
boy friends</w>
re solved</w>
el der
whi sk
ph </w>
Rest a
n ings</w>
day ...</w>
GI F</w>
photo grapher</w>
po etic</w>
view ers</w>
An dy</w>
e co-
stimul ate</w>
hom e-
re hear
reflec ts</w>
ph en</w>
ad orable</w>
lef to
s ma
in va
Dri ving</w>
one ..</w>
ca u
corpor ation</w>
s .com/
sc ar</w>
ex t
se ssions</w>
im migration</w>
Sad ly</w>
Su pp
B ec
screa ming</w>
examin e</w>
ent re
ab normal</w>
tra gic</w>
- like</w>
ur anium</w>
shel ves</w>
deri ved</w>
Good bye</w>
screa med</w>
A void</w>
nur ses</w>
sh or
Chang ing</w>
C au
Rep ort</w>
cry st
believ ing</w>
No v</w>
- 1</w>
p ad
Jan e</w>
u d</w>
fish er
you ,</w>
P hone</w>
tw in</w>
ta il
whi sp
op position</w>
un healthy</w>
spar k
Tar o</w>
p ic</w>
Ch urch</w>
v an
el y.</w>
sa d.</w>
experien ce.</w>
dialec ts</w>
Oper a</w>
I mag
0 5</w>
Yama gata</w>
rub bish</w>
ru ption</w>
Rom an</w>
se i</w>
wa y,I</w>
wast es</w>
S even</w>
cla uses</w>
la yer</w>
fer ence</w>
lat es</w>
U G
te ch</w>
di le
kne es</w>
toni um</w>
Is ra
. or
bu ried</w>
fac e.</w>
12 .
mer its</w>
ar ea.</w>
S I
fa st-
mb ly</w>
den ied</w>
l ent</w>
E li
l d.</w>
oun ded</w>
T I
D om
ok .</w>
sh o</w>
Y aku
si tion</w>
st ability</w>
laz iness</w>
dele ted</w>
partic les</w>
L D</w>
c ited</w>
ca su
sustain able</w>
S ake</w>
R ose</w>
un dan
sof t
civili zation</w>
Yama da</w>
On line</w>
mar ine</w>
org an</w>
________________ ________________
N one</w>
prote cting</w>
英 </w>
usu al.</w>
4 7</w>
Vi si
kn itting</w>
Ra ther</w>
I m
B en</w>
non y
/ 3</w>
issu ed</w>
police man</w>
tri p.</w>
alo g</w>
swi tched</w>
theat re</w>
swe ating</w>
da mn</w>
Y AK
F OR</w>
om ori</w>
revolu tion</w>
Pri ze</w>
whi ch
depo sit</w>
S che
. or</w>
Fire works</w>
communi cations</w>
app lies</w>
ab undant</w>
wri te
tab le.</w>
dis abled</w>
nostal gic</w>
L ang</w>
Imp ro
ENGL ISH</w>
cer tain
conduc tor</w>
cica das</w>
he a</w>
flav ors</w>
So ..</w>
in er
sec tors</w>
wal k
re viewed</w>
large ly</w>
un ic
excep tions</w>
in fin
So viet</w>
divor ced</w>
brea th
reven ge</w>
Har aj
star ing</w>
now here</w>
oblig ated</w>
aller gic</w>
politici an</w>
d ants</w>
b and
N ep
regre ts</w>
N abe</w>
ro asted</w>
cheap est</w>
v et</w>
O l
temp ura</w>
Egy p
har v
n ature
tap e</w>
♡ </w>
respon ded</w>
D ani
ch ur
k un</w>
Bhutan ese</w>
gr abbed</w>
la g</w>
dama ges</w>
Fin land</w>
prin ts</w>
pow ered</w>
Jo e</w>
discipl ine</w>
p age
t t</w>
T ired</w>
, that</w>
coo k
curr ency</w>
a tives</w>
desk top</w>
ra tional</w>
bother ing</w>
water fall</w>
U p
hy brid</w>
e mission</w>
Kuma moto</w>
P ap
M ir
declar ed</w>
actre sses</w>
f ing</w>
gen e</w>
C r
mus cular</w>
ro ck
S ai
hol es</w>
wi der</w>
C all</w>
compe tent</w>
To yama</w>
neg lect</w>
ck er
comm ented</w>
quali fications</w>
pop u
------------ -</w>
in ch</w>
Electr onic</w>
tr ends</w>
fresh men</w>
0 4</w>
om itted</w>
pro to
20 11
, this</w>
pre vention</w>
gi ri</w>
temp er</w>
bu bble</w>
th en.</w>
secre ts</w>
fe asi
pro li
conversa tion.</w>
capitali zed.</w>
hu gged</w>
Of ten</w>
Pop ulation</w>
commit tee</w>
Bic ycle</w>
effec tiveness</w>
Pho to</w>
care ers</w>
v ine</w>
asp x</w>
S mart</w>
cal cu
ci a</w>
poin ting</w>
hi l
de pri
J ac
le gen
Travel ing</w>
so ak</w>
fec tive</w>
affec tion</w>
decl ining</w>
Br own</w>
Da y.</w>
law yer</w>
u m.</w>
6 9
pa ys</w>
B .</w>
afterno on.</w>
full -time</w>
correc tion.</w>
depen dency</w>
y ab
the ses</w>
S L
ne vertheless</w>
Ghibli </w>
and as</w>
f old</w>
C ool</w>
sa mples</w>
candi date</w>
as ing</w>
interpre t</w>
soun d
parent s.</w>
English ...</w>
particip ation</w>
pu shing</w>
iPhon e
Nor thern</w>
foun der</w>
cei ve</w>
in stantly</w>
hand ling</w>
Y ak
inter net.</w>
Correc tion</w>
mom ent
i Tun
di ac</w>
soy beans</w>
st alls</w>
pe d
ener gy
G DP</w>
/ 12</w>
but ...</w>
gener ating</w>
mo ti
ro ller</w>
dyna mic</w>
fac ulty</w>
fri es</w>
o on</w>
emplo yer</w>
multi -
sing .</w>
exc uses</w>
re turns</w>
kit ten</w>
mi a</w>
' s
On sen</w>
Mi xi</w>
emb ar
st or</w>
ca ge</w>
pro found</w>
a sia</w>
kic ked</w>
Z oo</w>
ne west</w>
out doors</w>
cent ers</w>
bo shi</w>
U F
ok onomiyaki</w>
N ob
Le tter</w>
ter ing</w>
Com mit
doub ts</w>
EC E</w>
visi ons</w>
A Z
un natural.</w>
conne ctions</w>
hi d</w>
ari se</w>
categ ories</w>
it ori</w>
enjo yment</w>
expec tancy</w>
Ri ch
n an
ut a</w>
of .</w>
oni st</w>
b un</w>
clu b
Imag ine</w>
h iro</w>
p y
them ..</w>
econom ically</w>
Cze ch</w>
weak er</w>
D -
sa dly</w>
pi ani
/ 2</w>
dele te</w>
ed ...</w>
I ra
morn ings</w>
Chi le</w>
E x</w>
Ac ci
sa me.</w>
en vi
T op</w>
shi eld</w>
Kat akana</w>
voc alist</w>
han ami</w>
bus y.</w>
or ism</w>
etc ...</w>
seas on.</w>
fi ghts</w>
ban anas</w>
y uki</w>
pro vo
kn it</w>
fe min
M M
l ang</w>
sy nony
PI ECE</w>
di versity</w>
D ru
datab ase</w>
7 9
pri ce
regi onal</w>
e able</w>
' an</w>
b rains</w>
exp ort</w>
F lu
ro ll
ki d
oo o</w>
today ,</w>
R ay</w>
ocar ina</w>
f ered</w>
you t</w>
ful ness</w>
C ari
motor bike</w>
full -
or ph
Vide o</w>
t _
educ ate</w>
gossi p</w>
1 N
poli tely</w>
vulner able</w>
Techn ically</w>
D ef
Cho col
D D
. -</w>
summari ze</w>
jo int</w>
Russi ans</w>
No bel</w>
a tively</w>
illu strations</w>
- F
mb les</w>
mis understand
birth day.</w>
O pp
wh y.</w>
memb ership</w>
in ations</w>
post -
qu il
199 6</w>
celebri ty</w>
sequ el</w>
foo d
A ge
C G</w>
disappoin tment</w>
____ _</w>
mode st</w>
li al</w>
mel ted</w>
Fun d</w>
199 5</w>
vi su
arro gant</w>
た </w>
hon y</w>
fol ding</w>
po et</w>
ow l</w>
in visible</w>
Q U
che er
D NA</w>
Sil ver</w>
null, null,
H P</w>
P .</w>
ty ped</w>
Y u</w>
substan tial</w>
wi </w>
marvel ous</w>
Al ternatively</w>
Wester ners</w>
inter rup
metap h
docu ment
depart ments</w>
sp il
Satur days</w>
htt p-
lear ns</w>
L a</w>
N at
compre h
dri ll</w>
Be tween</w>
see .</w>
conf us
shame ful</w>
L AS
Me dia</w>
crac y</w>
chest nuts</w>
ide a.</w>
ni sh</w>
propor tion</w>
circum stance</w>
Ike bukuro</w>
S he
Tex as</w>
in stitution</w>
human ity</w>
H ad</w>
equi v</w>
Qu e
U me
A F
op es</w>
http- equiv</w>
com modi
s ink</w>
discoura ged</w>
prop ose</w>
delici ous.</w>
colle ge.</w>
Z ac</w>
ne at</w>
Hol land</w>
Ex change</w>
mag ical</w>
mi xing</w>
uni versal</w>
co tton</w>
cop i
tis m</w>
cashi er</w>
v ing.</w>
ca de</w>
d _
mi ce</w>
sp ir
Be cause
eth nic</w>
S E</w>
the irs</w>
ex cer
4 3</w>
this ..</w>
soci eties</w>
S it
cap ture</w>
li king</w>
ma id</w>
L un
land scap
hear t.</w>
× </w>
ch ili
fra g
St ay</w>
Natur ally</w>
paragrap hs</w>
ra m</w>
Ca use</w>
under wear</w>
d ingly</w>
deter ior
Z u
can dies</w>
AR E</w>
non sense</w>
Self- introduction</w>
A ussi
expre ssion
we d
co ke</w>
reven ue</w>
tu tor
I A</w>
S AK
consider ably</w>
secre tary</w>
wi sh
Ai kido</w>
thi ef</w>
wea ther.</w>
scri bed</w>
pharma cy</w>
cou se</w>
resi gned</w>
C OM
En viron
pil ls</w>
We ek
cre ature</w>
view point</w>
dr opping</w>
trop olitan</w>
Sun days</w>
dis k</w>
F our
b it.</w>
7 8
swe ater</w>
wh ales</w>
yell ed</w>
cor d</w>
Do g</w>
bur nt</w>
Me di
K on
y i
Buil ding</w>
ki monos</w>
c ents</w>
business man</w>
diagno sed</w>
th a</w>
regu lation</w>
liter ary</w>
P .
r at</w>
as ser
O -
h owever
enter tain</w>
prev ents</w>
hoo ked</w>
Tit le</w>
E di
beat en</w>
Con ne
P ort
/ for</w>
you -
z o</w>
ev ent
fr ying</w>
er s,</w>
H an</w>
J im</w>
u mm
Twi light</w>
beli efs</w>
P E
gar dens</w>
6 8
bl in
drea m.</w>
t ,I</w>
prepar ations</w>
iTun es</w>
sen ses</w>
G old</w>
confe ss</w>
S ex</w>
tru m
on es.</w>
lo ads</w>
TV .</w>
simil arities</w>
Kim chi</w>
P ir
mush room</w>
ori gami</w>
eth ics</w>
mb er.</w>
hur ting</w>
sli ces</w>
mid- term</w>
2 40</w>
Wom an</w>
Cu stom
instru ction</w>
St an
sar ca
grocer ies</w>
who ever</w>
al ity.</w>
wi ki
re lay</w>
squ id</w>
pe tals</w>
tori al</w>
gre y</w>
languag es.</w>
rug by</w>
week end
Wh o
S .
cell- phone</w>
Toku gawa</w>
war a</w>
acci dent
j uni
T w
quick ly.</w>
TH IS</w>
I t
/ was</w>
ab road.</w>
ben to</w>
comp onents</w>
accep ting</w>
fe ar
M ess
less .</w>
cu p
ya o</w>
fol ks</w>
proce ed</w>
de l
sc and
Con fu
consi sted</w>
even ing.</w>
re ha
con fron
mom s</w>
audi </w>
hand .</w>
promo ting</w>
imm er
bo ld</w>
conv ince</w>
R .</w>
P lay</w>
situ ated</w>
E V
However ,
か </w>
hydr ange
be a
Pr on
NO W</w>
depre ssing</w>
gui dance</w>
in ated</w>
Ne ed</w>
favor able</w>
0 8</w>
th ats</w>
D al
symp ath
red undan
c us</w>
neigh boring</w>
cooki e</w>
stre tch</w>
com e.</w>
appro aches</w>
4 00
ren ew</w>
subordin ates</w>
Syste ms</w>
ca m</w>
ve ter
Camb ridge</w>
dan cer</w>
ble -
avo ca
K ate</w>
sl ope</w>
kim chi</w>
idi ot</w>
ful filled</w>
lun ch.</w>
honori fic</w>
N T
utili ze</w>
T esting</w>
Cari b
es /
gr own
hi lls</w>
J L
oper ators</w>
col ours</w>
now ,</w>
K am
ulti mate</w>
/ d
aband on</w>
gad gets</w>
plu tonium</w>
nic o
men .</w>
pre ssing</w>
o date</w>
I bar
C RO
top s</w>
gover ment</w>
meas ured</w>
sp anish</w>
emplo y</w>
di gn
W O
fire work</w>
cyc les</w>
fe .</w>
pro s</w>
I ma
mo i
depen dence</w>
Bla ck
A v
mind set</w>
he ctic</w>
bri d
gol d
G W</w>
na vi
cri teria</w>
PS P</w>
collap sed</w>
dis orders</w>
your self.</w>
guit ari
co on</w>
way s.</w>
sw ol
orient ation</w>
Commit tee</w>
contribu tions</w>
fa iling</w>
goo .
hu h</w>
staff s</w>
bloom ed</w>
↑ </w>
ste ep</w>
fro g</w>
l ap</w>
ne ss.</w>
Victori a</w>
pa ins</w>
hospitali zed</w>
diarr hea</w>
ap ri
lic en
McDon alds</w>
Stu dio</w>
ad ds</w>
cand les</w>
gree dy</w>
m at</w>
societ y.</w>
T at
20 10
rab bits</w>
eng ines</w>
M ach
O H</w>
E th
brow se</w>
pup ils</w>
BL UE</w>
j in
at ly</w>
desi red</w>
agen cies</w>
3 000</w>
MS R</w>
P D
So ,
ru ined</w>
lo ses</w>
v agu
mic rop
net works</w>
No .</w>
me .
in qu
fat al</w>
a er
st rain</w>
Foo tball</w>
obst acle</w>
P eri
ac company</w>
lo cations</w>
resi dential</w>
,_ I</w>
o graphy</w>
nu ances</w>
friend s,</w>
S M
S ir</w>
che ating</w>
pe ar
scrat ch</w>
def end</w>
ir regular</w>
eli minate</w>
O u
日 </w>
b at</w>
busi er</w>
be loved</w>
/ n
Ki ds</w>
ten ess</w>
inten sive</w>
hair dresser</w>
sty le.</w>
announ ce</w>
pri son
qu a
tal k
Yam an
wo ken</w>
flu ency</w>
sc an
Fr en
Langu ages</w>
pen gu
cri es</w>
recep tionist</w>
shamp oo</w>
cr ane</w>
con ditional</w>
S im
4 4
war ri
el se.</w>
.j pg</w>
th read</w>
ic on</w>
Do ing</w>
ko tatsu</w>
hi me</w>
RE D</w>
knowled ge
Mo ving</w>
Sun ny</w>
Str ange</w>
inev it
ess ence</w>
indic ated</w>
li ve.</w>
competi tions</w>
S D</w>
Ma i
tion -
mon k</w>
u te</w>
R ab
serendi pit
L au
ga tions</w>
business men</w>
mb er
In v
scatter ed</w>
S c
Eng l
sa ves</w>
vi gor
tur ing</w>
se ed</w>
autom o
puni shed</w>
exp anding</w>
E ss
1 20
ali ke</w>
Natur al</w>
stu pi
IF A</w>
Di ego</w>
cler ks</w>
cop ies</w>
proble ms.</w>
on ic
expre ssion.</w>
achiev ements</w>
fi lial</w>
form al.</w>
de l</w>
suit case</w>
s nor
re d.</w>
out going</w>
Pri v
bac co</w>
ab s</w>
li min
Ta yl
classi fied</w>
Yuk ata</w>
extra ordinary</w>
Ju li
de vil</w>
u ries</w>
so- so</w>
oo s</w>
susta in</w>
be ..</w>
a sh</w>
CO 2</w>
gu y
j p</w>
st ove</w>
you ..</w>
p ound</w>
entre prene
consul ting</w>
exc it
su lt</w>
m alls</w>
5 9
pod casts</w>
Bl ood</w>
chi ll</w>
po le</w>
Tr ue</w>
h -
. net</w>
cre w</w>
B each</w>
- chan</w>
el ed</w>
ta ko
veget arian</w>
achiev ing</w>
un -
gra d</w>
B ye
H all</w>
sa y...</w>
L en
b rain
ine ss.</w>
stu b
Sleep ing</w>
inher ited</w>
C in
ligh ting</w>
tre ats</w>
Blo ssom
Mar tin</w>
weir d.</w>
prom ises</w>
contro ver
T SU
limit ations</w>
W ind</w>
p iled</w>
N onetheless</w>
Stu dies</w>
ra ys</w>
imple mentation</w>
pri vi
Po or</w>
Yu ki
Y A</w>
fru stration</w>
fr ank</w>
pan cake</w>
fe a
m ing
regi stration</w>
t ness</w>
or -
fail ures</w>
C ath
di ous</w>
John ny</w>
H at
人 </w>
tis sue</w>
F ini
r on</w>
resi dence</w>
Fe eling</w>
For um</w>
K ind</w>
Osa ka
drin k
Nic o
a while</w>
blog spot
inter n</w>
lo s</w>
L i</w>
ul u</w>
mand atory</w>
common .</w>
c ture</w>
cha sing</w>
cal mly</w>
Simp le</w>
Pro gram</w>
Dic tionary</w>
T rain</w>
on- line</w>
gi a</w>
it ch</w>
work s.</w>
sa kura</w>
kilo grams</w>
jewel ry</w>
terr orism</w>
termin al</w>
auth orities</w>
un certain</w>
butter flies</w>
on ically</w>
soooo o</w>
A C</w>
Com par
li ves.</w>
rec alled</w>
acqu ired</w>
pre served</w>
g al
restaur ant
agri cultural</w>
plan ed</w>
z e.</w>
Japan ,
st atu
accomp lished</w>
dough nuts</w>
hand -
bic ycle
fe ars</w>
Ex erci
al ert</w>
deman ding</w>
R Y</w>
8 1</w>
p c</w>
di an</w>
Swe dish</w>
perspe c
oc o</w>
o xy
dor i</w>
regar ds,</w>
elec ted</w>
F IFA</w>
An pan
199 7</w>
hand writing</w>
E C</w>
sleep y..</w>
journ alist</w>
go d
proli fer
cru sh</w>
j elly</w>
char t</w>
de ck</w>
good- looking</w>
eager ly</w>
appli ance</w>
P M
gi f
A y
star ring</w>
fun ni
S TE
insp ire</w>
5 4</w>
phra sing</w>
A .
ー </w>
reve aling</w>
as s
offen sive</w>
Te am</w>
Ed ward</w>
mean time</w>
proble m
tre ating</w>
f ence</w>
se wing</w>
i le</w>
ern ity</w>
H 1N
Beau ty</w>
Fol lowing</w>
fi xing</w>
A ga
Ya su
/ boo
2 F
progre ssive</w>
Conver sation</w>
fi erce</w>
pr one</w>
satis fying</w>
4 6</w>
sh -
s lang
c c</w>
clear ed</w>
architec t</w>
ro ast</w>
I l
Y outh</w>
/ 2010</w>
lea k</w>
u k</w>
tar ge
Raku go</w>
｀ </w>
Resta urant</w>
My self</w>
advan ces</w>
cha se</w>
com pose</w>
pre ssion</w>
four -
Sec urity</w>
recyc ling</w>
be verage</w>
Nor we
Inter esting</w>
U .</w>
po ttery</w>
pre serve</w>
bloo dy</w>
v able</w>
short ened</w>
M BA</w>
Col bert</w>
bom bs</w>
tun es</w>
mom ent.</w>
chan di
exagger ated</w>
cap tured</w>
K ai
Nar uto</w>
inter action</w>
mea sure
Gi ven</w>
che on</w>
design ated</w>
work ..</w>
Y es.</w>
lim iting</w>
20 10.
pass word</w>
coun tless</w>
bank rupt</w>
ssi mi
avoi ding</w>
f on
ow a</w>
E r
ton es</w>
goo dness</w>
know ..</w>
ap pla
e ur
J ones</w>
neutr al</w>
c ows</w>
no t
Holi days</w>
emo tionally</w>
si zes</w>
me ,
dis liked</w>
thir sty</w>
terri tory</w>
sy r
deva stating</w>
ky u</w>
ho t-
agri culture</w>
ha .</w>
out side.</w>
content -type</w>
H R</w>
ru in</w>
invol ve</w>
re marks</w>
Oh ..</w>
E .
po ly
new s.</w>
L ess
cover ing</w>
s or
Origin al</w>
voc al</w>
J ul
in th</w>
long ing</w>
ag ara</w>
sou ls</w>
wrest lers</w>
pick led</w>
Po lice</w>
ha tt
spo iled</w>
Rec ent</w>
do se</w>
gramm ar.</w>
rea d.</w>
mi ssion
day s..</w>
b achelor</w>
scar f</w>
int on
se ...</w>
se t
fragr ance</w>
ver ing</w>
f lights</w>
la tion.</w>
ri des</w>
Wedne s
Tom o</w>
equ als</w>
ja ms</w>
ligh ted</w>
lab our</w>
adap ted</w>
PC O</w>
disadvant age</w>
er d</w>
separ ately</w>
satelli te</w>
mi st
S audi</w>
he lium</w>
f ers</w>
In ception</w>
cur sion</w>
/ news</w>
pi er
ambi tion</w>
blo cked</w>
wr ink
Thom as</w>
resi stance</w>
dic tation</w>
d yed</w>
sta tion.</w>
speak ers.</w>
distribu tion</w>
3 60</w>
ce u
sand als</w>
sha de</w>
tran sp
pre limin
investi gate</w>
scrip ts</w>
S HO
IL L</w>
light ning</w>
Saka moto</w>
g ons</w>
adi se</w>
proper ties</w>
S ara
Every time</w>
AL LY</w>
reflec tion</w>
sol o</w>
batter ies</w>
Hear t</w>
manufactur ers</w>
Jo y</w>
cultiv ate</w>
leg ally</w>
vi an</w>
re lating</w>
si bl
c on</w>
dra stically</w>
ballo on</w>
ex it</w>
TE ST</w>
op pose</w>
dete ctive</w>
hil arious</w>
yuk ata</w>
l or
controver sy</w>
ato yama</w>
to ll</w>
O mi
P y
dign ity</w>
cho ir</w>
Ri e</w>
pi pe</w>
happen ed.</w>
skir ts</w>
To y</w>
mon u
kin s</w>
p orts</w>
exerci sed</w>
Haraj uku</w>
E IK
E at</w>
cop y
re ver
Willi am</w>
3 1
hi bi
N either</w>
puzz led</w>
dang ers</w>
acqua inted</w>
ble ssed</w>
sche dules</w>
dr un
Sh all</w>
um -
thumb </w>
b id</w>
Ar ch
fi le
' T</w>
F ine</w>
sign als</w>
tt ered</w>
consul tant</w>
3 4
life -
k ong</w>
St at
Mu ch</w>
/ 10
P artic
invol ving</w>
funn y.</w>
D P
ja il</w>
･ </w>
K om
An aly
y el
ref le
eas y-
supp orters</w>
ha ve.</w>
hospit ality</w>
bb les</w>
ten ed</w>
d ye</w>
outwe igh</w>
study ing.</w>
in som
sci ssors</w>
Bri dge</w>
est ee
te ar</w>
cab inet</w>
deli ber
en rich</w>
W aka
v an</w>
time ...</w>
b en</w>
. fm</w>
cri tic
C S
clu e</w>
star ving</w>
る </w>
su ck</w>
8 2</w>
fu ri
spo on</w>
inju ries</w>
umbrella s</w>
Bo ard</w>
fir ms</w>
Swi mming</w>
example ,
mar i
un predictable</w>
Coun try</w>
CRO SS</w>
sli ce</w>
0 6</w>
/ blog
OR E</w>
health .</w>
sacri fic
u x</w>
commu ter</w>
____ </w>
spin ach</w>
gra ded</w>
p in</w>
re verse</w>
cucu mber</w>
son g.</w>
Sha ke
honey moon</w>
mid term</w>
mer it</w>
B at
prac tically</w>
' my</w>
up stairs</w>
contain er</w>
Hou se
il y
7 6
bl own</w>
Home work</w>
x .</w>
C ru
MP 3</w>
de ce
e e</w>
firef lies</w>
repeti tion</w>
Ter ri
sa una</w>
mor i</w>
G ri
ori zed</w>
nee dless</w>
list ing</w>
exhi bit</w>
b iting</w>
j a</w>
semic ol
T .</w>
pan el</w>
que ue</w>
PS 3</w>
revi sed</w>
fi er</w>
exc lud
ag es.</w>
2 chan</w>
audio boo
audioboo .fm</w>
H yo
in appropriate</w>
sa y..</w>
pe ssimi
D ate</w>
fu t
tex ture</w>
ho t.</w>
b ol
teamm ates</w>
Y Y
a in</w>
H1N 1</w>
ex- boyfriend</w>
omi ya</w>
organi zing</w>
cap ability</w>
hard ware</w>
L isa</w>
atel y.</w>
AN A</w>
beauti ful
begin ing</w>
Hak odate</w>
H atoyama</w>
sc rap
cour te
/ with</w>
to kyo</w>
comm erce</w>
poor ly</w>
Peter son</w>
S leep</w>
see mingly</w>
sen ds</w>
ani an</w>
F RI
spee ch
str ay</w>
Sa int</w>
rep lies</w>
j ong</w>
reci eved</w>
be ds</w>
ser vant</w>
Scot land</w>
so de</w>
the ore
peac efully</w>
air planes</w>
, is</w>
Ch all
re viewing</w>
portra it</w>
spr ink
vow els</w>
t om</w>
tra ine
exten sive</w>
as p</w>
W u
K hand
U g
oper ated</w>
笑 </w>
t is</w>
C ar</w>
Dar k</w>
day s,
moder ate</w>
ance stor</w>
de struction</w>
black outs</w>
a z
la cks</w>
K AR
Ma de</w>
compli ment</w>
Comp ani
apo strophe</w>
prote in</w>
us yu</w>
Coo led</w>
X '
the si
en dy</w>
opp y</w>
pro spe
swol len</w>
ch ment</w>
la sting</w>
ank le</w>
fre e.</w>
per mitted</w>
seas oned</w>
Lu cky</w>
as sy</w>
y ama
resi dent</w>
p /
n ap
ce ments</w>
it .
ner ve</w>
5 .</w>
hom o
allow ance</w>
TE PCO</w>
enti ally</w>
faul ts</w>
subordin ate</w>
rec rea
IK EA</w>
, especially</w>
str ator</w>
be et
summ er
as is</w>
tic .</w>
wea ther
ll .</w>
tr apped</w>
basi cs</w>
fr ankly</w>
dile mma</w>
cop ied</w>
accessi ble</w>
8 5</w>
Re ad
ali ens</w>
shoo ts</w>
consider ate</w>
Ch oo
law n</w>
apo logy</w>
sil ently</w>
G ossi
dic al</w>
s burg</w>
C ross</w>
chec ks</w>
Spi ri
u ma</w>
ｓ </w>
T ER
over -
ku -
de -
gad get</w>
audi ences</w>
Kana zawa</w>
gar den
fa ils</w>
resi gn</w>
rea ches</w>
tr ay</w>
pa use</w>
lett er.</w>
in- law</w>
p ly</w>
car ries</w>
sequ ence</w>
for bi
お </w>
de serves</w>
pe ach</w>
A ct</w>
so da</w>
ru ins</w>
mur der
8 .</w>
on ,</w>
ss y</w>
expl or
loc ate</w>
X mas</w>
Kit ty</w>
clu m
soci ally</w>
A vail
M US
/ on</w>
J ay</w>
sche mes</w>
s ni
P op</w>
ec t</w>
dan cers</w>
est .</w>
ent ri
pac ks</w>
appro ved</w>
D au
lim itation</w>
pollu ted</w>
calcul ate</w>
sing ap
Mi le</w>
in sert</w>
sub stance</w>
stri ve</w>
E as
deal t</w>
pro ves</w>
microp hone</w>
r ating</w>
Carib bean</w>
accep tance</w>
il es</w>
ed ,</w>
cap it
be low.</w>
sibl ings</w>
tan tly</w>
Canadi ans</w>
be tra
per mit</w>
s r
wan dering</w>
present .</w>
s th</w>
be ca
post card</w>
Mag ic</w>
R MB</w>
IN G
M E
accur acy</w>
bo om
ms n</w>
AM A</w>
ali en</w>
, who</w>
g al</w>
lo go</w>
spo il</w>
repeti tive</w>
Ni pp
w ound</w>
cu t
rom e</w>
00 AM</w>
do ..</w>
.com .
Prin cess</w>
ti ve-
week s.</w>
desi r
wed dings</w>
whi le
in san
me ssed</w>
nic e.</w>
gui ded</w>
char ges</w>
F ar
chi p</w>
athle te</w>
read ing.</w>
e ter</w>
journ al.</w>
G ene
trum pet</w>
infec tion</w>
ap par
In clud
Co ast</w>
ES S</w>
ar ound.</w>
Au dio</w>
Ma in
Christi an
o ts</w>
altern ate</w>
any ways</w>
or der
Gi fu</w>
Europe ans</w>
reha bili
inspe ction</w>
deter mination</w>
plan ing</w>
b ers</w>
e scal
cur tain</w>
el .</w>
sever ely</w>
5 6</w>
mon sters</w>
Fr ank
contribu ting</w>
heavi er</w>
ph oned</w>
k k</w>
decl ined</w>
Y U
short en</w>
evi dent</w>
sh ino</w>
blogspot .com</w>
simul taneously</w>
M ick
imagin ary</w>
to es</w>
ti er</w>
chu an</w>
Ke eping</w>
inte gr
compreh end</w>
syste m.</w>
fra gi
sa d..</w>
la d
N 'T</w>
seven th</w>
buck wheat</w>
di lig
func tional</w>
4 29</w>
fe eding</w>
min ority</w>
pan cakes</w>
Fi sh</w>
neck lace</w>
short ly</w>
din osa
year s-
p anda</w>
expensi ve.</w>
i sts</w>
J AL</w>
coun ty</w>
Pri son</w>
Comm unity</w>
perio d.</w>
tako yaki</w>
/ r
la be
vel y.</w>
ang -
b ang</w>
explo ded</w>
p s.</w>
c -
who le
val id</w>
rep orting</w>
Khand ani</w>
r inging</w>
- P</w>
h int</w>
S ON
Tr ying</w>
calori e</w>
clin ical</w>
stor i
4 9</w>
c tor</w>
nois es</w>
pro sper
bla h</w>
Ni agara</w>
orang es</w>
o e</w>
Experi ence</w>
decor ation</w>
/ It</w>
/ that</w>
for .</w>
sa ma</w>
wh ale</w>
Swe et</w>
in correct.</w>
argu ing</w>
c y.</w>
H T</w>
inevit ably</w>
f oward</w>
Norwe gian</w>
b rac
no vel
bur y</w>
deta il
ad dressed</w>
v is</w>
susp icious</w>
a ,</w>
wide spread</w>
distribu ted</w>
ro yal</w>
ji -
la bel</w>
oc curr
cl ay</w>
S ear
F ire</w>
appe aling</w>
u me</w>
tab let</w>
/ it</w>
List en</w>
at tain</w>
sweat y</w>
ge s
eat .</w>
do -
S S
Man hatt
Avail able</w>
mi le</w>
any thing
be i</w>
IC E</w>
t ours</w>
inferi or</w>
Ale x
J un</w>
N ing
con sole</w>
distur b</w>
reason .</w>
tt ering</w>
AT E</w>
ur red</w>
Simil arly</w>
entu res</w>
Corpor ation</w>
exa m
sub stances</w>
selec ting</w>
kar ate</w>
ver bal</w>
ken do</w>
yo -
on going</w>
li cation</w>
i ds</w>
or na
Fanta sy</w>
, or</w>
prejudi ce</w>
addic tion</w>
ly ...</w>
stuff s</w>
resear ches</w>
arri ves</w>
ii ii
M L</w>
appoin t
gree ted</w>
ma ki</w>
5 6
Brea k
tri cks</w>
i de</w>
ma stered</w>
spect ac
Nor way</w>
comp en
Bel gi
low ers</w>
r in
ten ded</w>
du ck</w>
Po st</w>
xx x</w>
b are</w>
mu ggy</w>
Christi ans</w>
se al</w>
wa kes</w>
/ 8
bio logical</w>
nor m
confus ing.</w>
atmo sp
techno log
mer chandi
In no
squ ee
f itting</w>
D el
Shake spe
O ne
la tion
conven tion</w>
ri d
J or
Cul tural</w>
accumul ated</w>
the ir
head quarters</w>
friend s,
' but</w>
nation alities</w>
h mm</w>
conqu er</w>
Wor k
Bo at</w>
lea ther</w>
Y ay</w>
comp ati
g ang</w>
va mpire</w>
The ory</w>
ai ming</w>
inte grated</w>
pain .</w>
20 s</w>
sna il</w>
eas y.</w>
Sher lock</w>
/j p.
W ent</w>
Chin at
che ated</w>
Char ac
vari eties</w>
deli ght</w>
book stores</w>
y en.</w>
qu een</w>
Imp re
o live</w>
B ang</w>
. My</w>
co z</w>
Pro f
Ka zu
Lab or</w>
follow ers</w>
gl ory</w>
automo bile</w>
HA HA</w>
es -
all y-
lo ad
daugh ter
mu s</w>
eng age</w>
we igh</w>
k oku</w>
la mb</w>
no tion</w>
H ide
run ner</w>
stra w</w>
tra il</w>
fut sal</w>
chili </w>
diff ers</w>
smo ker</w>
transi tion</w>
oo oo</w>
HEL P</w>
＊ </w>
happ end</w>
star t
AS AP</w>
Japanese- English</w>
thir teen</w>
inv ent</w>
v om
Ma thema
A ward</w>
far ming</w>
piani st</w>
ici an</w>
H E
AV AT
U ra
th west</w>
bru shing</w>
Gossi p</w>
Gun dam</w>
vit amin</w>
H eij
un employed</w>
col d..</w>
p andas</w>
L ar
Ari z
H ER
appoin ted</w>
Asi ans</w>
stoc ks</w>
cat ches</w>
A ka
respect ful</w>
minimi ze</w>
teen age</w>
,, ,,
D own</w>
ho sted</w>
Over all</w>
N et</w>
compani on</w>
streng th
inse ct</w>
5 8
De ad</w>
Pir ates</w>
gi e</w>
s orrow
concentr ating</w>
/ 2009</w>
won t</w>
w er
environ ments</w>
lun g</w>
will ingly</w>
Pro duc
Fin ding</w>
the &nbsp</w>
Dani el</w>
◇ </w>
skill ful</w>
- in</w>
feasi ble</w>
on sen</w>
Inter view</w>
re form</w>
Sh en
cri tics</w>
bio graphy</w>
col dest</w>
en ri
al ties</w>
di d.</w>
P O</w>
5 2</w>
O ff</w>
h ints</w>
pl z</w>
ell ow</w>
teen th</w>
quo ted</w>
Fr an
floo ded</w>
To eic</w>
wol f</w>
deli ght
o- chan</w>
de shi
pi gs</w>
F ore
1 /
Present ation</w>
par ty
/0 9</w>
b y.</w>
Anywa y,I</w>
l ing
sp ices</w>
scenari o</w>
X' mas</w>
cu te.</w>
mel tdown</w>
correspon ding</w>
car pet</w>
B ru
con stitution</w>
time ,I</w>
ver b
P A</w>
Cha p
6 8</w>
cucu mbers</w>
M ol
M L
poin t.</w>
ful filling</w>
diction ary.</w>
n' t
na ire</w>
B un
③ </w>
Li on</w>
car t</w>
satis factory</w>
ev ent.</w>
9 -
pa inters</w>
Voc abul
we ster
intri gu
pre school</w>
ago ,</w>
Gra de</w>
kit a</w>
di men
ona ire</w>
Sta tistics</w>
Manhatt an</w>
strop h
imp acts</w>
D R
contro lling</w>
pregn ancy</w>
cra fts</w>
z ai</w>
smo ked</w>
whisk ey</w>
mo tto</w>
an esthe
can -
statu es</w>
R ol
dea v
disc oun
suspe cted</w>
Com ple
belong ing</w>
misunderstand ings</w>
prelimin ary</w>
winter .</w>
ent ers</w>
2 ,000</w>
vi l
prin ting</w>
chang e.</w>
work ing.</w>
desir able</w>
r ows</w>
- fried</w>
bac on</w>
&&&& &&&&
wri te.</w>
￥ </w>
po se
e ti
fore head</w>
pal m</w>
in ary</w>
conclud ed</w>
ne d.</w>
v s.</w>
tire dness</w>
discover ies</w>
pack ages</w>
Gre en
cre ep
J R</w>
Li ke
AS E</w>
te ller</w>
Di g
them selves.</w>
ver sus</w>
eigh teen</w>
tra iler</w>
re tail</w>
environ ment
corpor ations</w>
phra sal</w>
tt er.</w>
bu ys</w>
Can ada
Bil ly</w>
Drea ms</w>
k en.</w>
head .</w>
program mes</w>
k ou
a wan</w>
5 000</w>
Hi me
wa ges</w>
Ex cel</w>
Su c
S U</w>
landscap es</w>
S pen
tter .com</w>
................ ................
Val ley</w>
che ek</w>
V S</w>
D C</w>
B log</w>
ligh t.</w>
15 0
ho ly</w>
T IME</w>
s cold</w>
re placement</w>
conne cts</w>
si ble</w>
toge ther
x -
influ ential</w>
Ad mini
re fresh
pat ri
Ca mp
Anywa y,
Ci ao</w>
s log
execu tive</w>
F U
gi ous</w>
ta tion.</w>
S to
goog le
Sun day.</w>
P le
sci ence
y y
pro sp
S K
B ou
auth en
De scribe</w>
y _
i dle</w>
monit oring</w>
sal e
tat too
spi der</w>
stre et
C are
, in</w>
W an</w>
ar ity</w>
ge ons</w>
life styles</w>
wa ste
ing e</w>
bar gain</w>
T- T</w>
st ent</w>
ap t</w>
ma stering</w>
six ty</w>
bus .</w>
guitari st</w>
bou quet</w>
rand om
ner ves</w>
e es</w>
prosper ity</w>
N aka
exhau sting</w>
Sur veillance</w>
cell phones</w>
ch er
fertili ty</w>
ado le
heal ing</w>
Ex press</w>
fur thermore</w>
sa il
initi ally</w>
la ying</w>
na use
si ts</w>
tat ami</w>
St ore</w>
Peri od</w>
H am
kno ck</w>
dia be
clothe s.</w>
dr ome</w>
/ 4</w>
min eral</w>
K ara
gu ards</w>
p y</w>
a ..</w>
mb s</w>
Dy nasty</w>
years- old</w>
Gradu ation</w>
stub born</w>
ap ps</w>
Peter sburg</w>
ous ly.</w>
C le
clum sy</w>
O B
be g</w>
me mo</w>
conver t</w>
ci us</w>
separ ation</w>
invest ing</w>
some .</w>
FRI EN
/ he</w>
reason ably</w>
ck ey</w>
identi fied</w>
Ky usyu</w>
st all</w>
Y ES</w>
I sl
interpre ted</w>
book shelf</w>
qu itting</w>
elabor ate</w>
because .</w>
Imp ort
Sy mp
dis likes</w>
eye br
na mely</w>
hour .</w>
inv ested</w>
jo gged</w>
A h
Vi en
Col om
shar es</w>
ima ge
earthqua ke.</w>
/ have</w>
L ine</w>
N ations</w>
la mp</w>
fish .</w>
ner ship</w>
contra ction</w>
minu te
is tic</w>
ki yaki</w>
Tayl or</w>
m aple</w>
30 pm</w>
Sleep y</w>
foun tain</w>
adv ices</w>
experi mental</w>
ach ed</w>
F ight</w>
wit ne
high- school</w>
pic s</w>
ti ful</w>
gr u
b all.</w>
con ju
Foun dation</w>
gr ant</w>
mel ting</w>
speci fied</w>
P on
ver ted</w>
-------------------------------------------- -</w>
ke ting</w>
every thing.</w>
fore most</w>
O sechi</w>
bul lied</w>
friend ships</w>
Kar ate</w>
no ted</w>
/ audioboo.fm</w>
main land</w>
grace ful</w>
AY A</w>
analy zing</w>
ear nest</w>
an onymous</w>
po or.</w>
boo th</w>
Mi ke</w>
in n</w>
ad dresses</w>
M C
s -</w>
convinc ing</w>
H ob
situ ation
genu ine</w>
examp le.</w>
B S</w>
po ison</w>
serendipit ous</w>
stric ken</w>
insom nia</w>
three- day</w>
Gar den</w>
post cards</w>
al it
Know ing</w>
invest ors</w>
W I
u ation</w>
volcan o</w>
v ent</w>
Fe der
M ind</w>
ca uti
Chocol ate</w>
Z i
p ine</w>
po ts</w>
ev ing</w>
er als</w>
Ha yao</w>
skin ny</w>
or ...</w>
60 s</w>
sel s</w>
gall ery</w>
fortun atel
ne .jp</w>
stra igh
weigh t.</w>
far ms</w>
susp ended</w>
h older</w>
perfec t.</w>
Me et</w>
li an</w>
Hen ry</w>
Si b
subjec t.</w>
Hello ,everyone</w>
gra in</w>
a to</w>
eu than
V E
sp ends</w>
ali zing</w>
contribu tes</w>
cho ice.</w>
vit a
fab ric</w>
english .</w>
ch opped</w>
after ward</w>
me te
V il
Mi so</w>
desp air</w>
Han eda</w>
humi li
shi en</w>
conjun ctions</w>
de but</w>
insul a</w>
picture s.</w>
h on</w>
B R
syr up</w>
/boo s</w>
jud ged</w>
clu b.</w>
Gre etings</w>
ex cursion</w>
can e</w>
KY O</w>
pi e
paralle l</w>
Lit erature</w>
blu e
se same</w>
conson ant</w>
Fil m</w>
alco hol
re servations</w>
poor er</w>
bit ter
se ki</w>
C ou
construc ting</w>
Any how</w>
se ,</w>
comb ining</w>
J in
ti ghtly</w>
wa y..</w>
... and</w>
v in</w>
te ed</w>
sle eved</w>
atten dance</w>
gr oun
natur al
home made</w>
wi ped</w>
yell ing</w>
bo th.</w>
' You</w>
sc ream</w>
tur key</w>
S usan</w>
edi ted</w>
di ve</w>
Chan nel</w>
re lates</w>
nove list</w>
villa ges</w>
to bacco</w>
compe tit
recogni tion</w>
shu ttle</w>
comprom ise</w>
in dul
fruit ful</w>
Char lie</w>
Char les</w>
circu lation</w>
p m.</w>
Thur s
OO OO
A dding</w>
sac red</w>
S wee
gold fish</w>
Ariz ona</w>
sw allow</w>
Bel ar
z om
lan ded</w>
comp ens
pre sti
with stand</w>
Ty pe</w>
go -
pul ling</w>
la yout</w>
. 2</w>
Fi g
por ridge</w>
la st
5 3</w>
Australi ans</w>
C op
n n
rec order</w>
ま </w>
sc are</w>
Sent ences</w>
me tab
ed -
game s.</w>
mat su</w>
Isra el</w>
A la
so ,I</w>
Mari o</w>
ate s.</w>
10 1</w>
he els</w>
goog led</w>
anti que</w>
cockro aches</w>
Hol mes</w>
jud ges</w>
Ira q</w>
heart -
dete ct</w>
Mich el
Fe sti
prolifer ation</w>
ex cla
disc lo
ular .</w>
S am</w>
so aking</w>
stra tive</w>
cycl ope
relax ation</w>
dou ble-
app lic
Mad rid</w>
sa s</w>
man us
Pu bli
tat too</w>
ra il</w>
un reasonable</w>
paper backs</w>
Ⅱ </w>
Set sub
ri -
K S</w>
19 80</w>
K AN
en deav
off -
Prof iciency</w>
spr ing.</w>
cur se</w>
eas y
Phi losop
jud gment</w>
wi re</w>
EIK EN</w>
se i
Sen ior</w>
mist ook</w>
prom in
amaz ingly</w>
After ward</w>
surg ical</w>
20 ,000</w>
Ar my</w>
rese mbles</w>
col lar</w>
possi ble
op hone</w>
sales man</w>
home work.</w>
. But</w>
L ong
cul t</w>
fir stly</w>
n ar
Partic ularly</w>
I denti
, Japan</w>
Exerci se</w>
f ly
7 2</w>
∀ </w>
pri mar
B road
Con t
E U</w>
syll ables</w>
at su</w>
U ta
enhan ced</w>
com memor
Tanz ania</w>
chick ens</w>
valu ed</w>
respe ctive</w>
question naire</w>
che ese
volun tary</w>
chr onic</w>
di f
Go d
H AN
oper ator</w>
draw ings</w>
on ce.</w>
linguis tics</w>
hoo d.</w>
indepen dently</w>
一 </w>
Con stitution</w>
preten ding</w>
S ad</w>
Hu mans</w>
Sent ence</w>
inc lined</w>
re tain</w>
F requ
AM I</w>
S tri
feel ings.</w>
to e</w>
oxy gen</w>
compla ins</w>
br a</w>
ab sur
Dra ma</w>
g ang
Any thing</w>
fle sh</w>
bra ss</w>
accumul ate</w>
cor ruption</w>
with draw</w>
proce ssed</w>
thin ner</w>
n us
up grade</w>
/twi tter.com</w>
me lt</w>
surf ed</w>
senti mental</w>
beha ved</w>
now ...</w>
do es
g l</w>
MR T</w>
speak er.</w>
adju sted</w>
th ,
ce d
wi pe</w>
deshi ko</w>
Maj or</w>
. 2010</w>
gra m
Fin anci
stom ach
el and</w>
cent uries</w>
sof tly</w>
ici ent</w>
occu pa
edi ting</w>
mo ck</w>
pu bs</w>
ir onic</w>
fa ther.</w>
u mn</w>
Ka mi
zu shi</w>
Regar ds,</w>
che mic
igh ts</w>
inter section</w>
environ mentally</w>
/ 4
self- confidence</w>
od d.</w>
sub title</w>
F ro
TO KYO</w>
chest er</w>
gen res</w>
w ere
h iring</w>
twee ts</w>
ver sa</w>
Vocabul ary</w>
heal ed</w>
some one.</w>
vo ting</w>
long ed</w>
C are</w>
inter nation
op h
toi lets</w>
less er</w>
/jp. youtube.com</w>
Per son</w>
se ,
Christian ity</w>
, what</w>
b and.</w>
mech anism</w>
sh iny</w>
wou ld
Ca se</w>
cer am
car eful
weak nesses</w>
Mit su
d one.</w>
informa tion.</w>
compe ting</w>
dump ling</w>
or -</w>
Ja va</w>
pic ture.</w>
co ast
pe e</w>
Aussi e</w>
decl are</w>
par tici
U P</w>
ly ,I</w>
pro tag
M ust</w>
coffe e.</w>
lu ck
pr ou
L abor
on ...</w>
in directly</w>
neighb our
oppo sing</w>
tri gger</w>
there ,</w>
e house</w>
3 2
me lan
at or
de ple
r s</w>
M A</w>
lic it</w>
ya hoo</w>
sle eves</w>
K agawa</w>
cou ch</w>
secon d
this ...</w>
t win
al located</w>
m ab
develop er</w>
. We</w>
off ended</w>
High -
conta minated</w>
Don ald</w>
prom p
represent ed</w>
S lo
in serted</w>
communic ated</w>
A tom
trans parent</w>
Gi on</w>
h it
Si x</w>
Rich ard</w>
Y ear
ex changes</w>
20 50</w>
imple menting</w>
un g
Ri ding</w>
hesit ant</w>
Ar ts</w>
cryst al</w>
JL PT</w>
Ab solu
Arch itec
bre ed</w>
Ro yal</w>
F alls</w>
Hyo go</w>
. Or</w>
Diff icult</w>
M um</w>
confec tion
23 8-
injec tion</w>
net /
Mo bile</w>
robo tic</w>
om a
noti ce
Begin ning</w>
ne ur
Hear ing</w>
Je ju</w>
str ings</w>
threat ened</w>
Financi al</w>
ske tch</w>
/ 1</w>
pe ers</w>
initi ative</w>
v ar
school ,</w>
g our
y omi
compen sation</w>
P LE
pr o</w>
Sof t
Ter min
ref rain</w>
Chi ld</w>
L ight</w>
F le
zz ling</w>
season ing</w>
ma x</w>
d dy</w>
che wing</w>
Gi ants</w>
US E</w>
imp l
in direct</w>
S ri</w>
scu ba</w>
Okin awan</w>
continu ally</w>
resc ued</w>
hard ships</w>
Compani es</w>
Sh op</w>
kat su</w>
house wives</w>
col li
lo ser</w>
vacc ine</w>
cat er
- 2</w>
po ckets</w>
grap e</w>
u ce</w>
8 8</w>
signific ance</w>
col a</w>
t opped</w>
a mp
wi shing</w>
ex otic</w>
C ut</w>
8 6
, even</w>
shar ply</w>
demo cracy</w>
P AR
pen s</w>
suff er
4 ,
Chr is</w>
a h
Wa it</w>
re ject</w>
te ar
hur ri
t- shirt</w>
nic ely</w>
en ties</w>
difficul t..</w>
vo ice.</w>
1 Q
t ating</w>
G M
Ad am</w>
critic al-
per t</w>
Wal k</w>
busine ss.</w>
bul l
m any
ing lish</w>
phenomen a</w>
-------------------------------------------- --</w>
- ing</w>
fac e-
Ale x</w>
head set</w>
smoo ther</w>
L oo
evacu ation</w>
ro e</w>
l iness</w>
post ure</w>
volunte ering</w>
par cel</w>
Y E
ri val</w>
Hi k
To day,
Heij u</w>
chi -
sof tball</w>
re vol
movi e
z uka</w>
Age ing</w>
dru g
nico video
que tte</w>
rac coon</w>
' A</w>
in doors</w>
mi stry</w>
』 </w>
ch ant</w>
Pro v
ffici ent</w>
Sup pose</w>
dist inct</w>
Chinat own</w>
I de
y ....</w>
p ine
Res our
R P
evalu ated</w>
.edu /
------------ ---</w>
coo l.</w>
Iwa te</w>
Rab bit</w>
ri e</w>
pan ic
appropri ately</w>
o taku</w>
... but</w>
hard ship</w>
femin ine</w>
G host</w>
d ening</w>
in convenience</w>
Tou ch</w>
min a</w>
/ this</w>
In side</w>
adver bs</w>
Provi dent</w>
phra sed</w>
train er</w>
hel met</w>
manufactur er</w>
fragi le</w>
ur able</w>
N oo
Ste phen</w>
de ss</w>
不 </w>
Physi cs</w>
F er
estee m</w>
B ack
Shi ga</w>
purcha sing</w>
gra der</w>
/ will</w>
- of-
geo graphy</w>
N AS
be ver
sett ings</w>
gi g</w>
so ...</w>
nee ded.</w>
don ations</w>
tor n</w>
00 PM</w>
G or
op hi
rr rr
Satur day.</w>
consul ted</w>
consu med</w>
develop s</w>
le le</w>
reli ability</w>
ro cket</w>
fro gs</w>
tooth ache</w>
un willing</w>
o' clo
be es</w>
ky u
tu m
mn as
tit le.</w>
inton ation</w>
at ers</w>
fer mented</w>
sli pper
R an
me ats</w>
progra m.</w>
pat ent</w>
regre ttable</w>
pedestri ans</w>
St and
bu rea
linguis tic</w>
ce ,</w>
M ar</w>
imm une</w>
pursu ing</w>
00 00
yester day,</w>
s, so</w>
u c
Ed 6
Austri a</w>
D ad
comp ound</w>
/ an</w>
Gra mma
occur ring</w>
re fund</w>
wi tch</w>
asse ts</w>
Shir in</w>
too ..</w>
rehear sal</w>
US B</w>
sole ly</w>
ob serving</w>
W ang</w>
pd f
noo d
bul lying</w>
U mm</w>
col umn</w>
g ul
a wards</w>
inten sity</w>
S hel
wha t
W r
bo ats</w>
Belgi um</w>
atom y</w>
5 ,000</w>
insp iring</w>
imagin ing</w>
dilig ently</w>
gg le</w>
vari es</w>
r u</w>
Ra in
l eng
20 110
Dig ital</w>
Fri ed
Le ad
spr ay</w>
.... ..
whe els</w>
centi meters</w>
Wonder land</w>
M AN
A li
Cin der
fa me</w>
express way</w>
exhibi tions</w>
cand le</w>
ap h
C leaning</w>
alread y.</w>
my ster
one ,</w>
marke t.</w>
che ers</w>
thri lled</w>
' What</w>
co ats</w>
C ON
Goo d-
s can</w>
wind ow
overwhel ming</w>
bless ing</w>
hypo thesis</w>
Tele vision</w>
tion ,</w>
inv iting</w>
eni x</w>
J .</w>
Toshi ba</w>
son .</w>
Vi ew
/ c
distingu i
great .</w>
descrip tions</w>
crow ds</w>
demo cratic</w>
mon etary</w>
no thing.</w>
v ani
M et
new comer</w>
wi ld
, then</w>
maj ors</w>
co ff
fi st</w>
wor ri
J in</w>
E ri
conver se</w>
or dering</w>
p f
k ur
sse d.</w>
b lows</w>
requ esting</w>
metaph or</w>
Boo k
Regar dless</w>
ri sky</w>
war med</w>
M arri
ti se</w>
Hai ti</w>
ho ckey</w>
opp er</w>
sub -
proof read</w>
S la
fi a</w>
co gni
ai ds</w>
excla mation</w>
' because</w>
ble eding</w>
cir cles</w>
Person al</w>
Mean ing</w>
Fi ref
Sou thern</w>
sign ature</w>
ten th</w>
ver t</w>
A h..</w>
haha ..</w>
perform ers</w>
attra c
ke s.</w>
festi val.</w>
Sou theast</w>
Fin ance</w>
stic kers</w>
Har u
Top ic</w>
inten tions</w>
Tit anic</w>
sta mp</w>
so dium</w>
fe ast</w>
tru sted</w>
second- hand</w>
notic ing</w>
H atsu
AT M</w>
answ er.</w>
fec ts</w>
A omori</w>
obe sity</w>
ear rings</w>
redundan t.</w>
M AR
side walk</w>
Kab uki</w>
di c</w>
down stairs</w>
Chri st</w>
Hime ji</w>
N AR
po les</w>
A o
sk unk
Umm ..</w>
6 7
Shakespe are</w>
on ,
ev al</w>
smar ter</w>
Mi e</w>
form ally</w>
ya .</w>
Exa mples</w>
nerv ous
Artic le</w>
primar ily</w>
spee ch.</w>
U pon</w>
HD B</w>
coun ts</w>
invest ments</w>
six teen</w>
guess .</w>
ji .</w>
lo y
y ness</w>
fla sh
par a
thri lling</w>
W BC</w>
There fore
- 4
arrang ing</w>
Lo l</w>
un ited</w>
Str ong</w>
ma ths</w>
Ama z
tomorrow ..</w>
perspec tives</w>
AVAT AR</w>
cover age</w>
Ma il</w>
vir uses</w>
spectac ular</w>
smart phone</w>
ca me
E mb
/ The</w>
pe an
day s,</w>
mol ten</w>
ges tion</w>
Au gu
Ex plain</w>
exten sion</w>
mi ll</w>
compo ser</w>
re y</w>
flat s</w>
figh ter</w>
delight ful</w>
a ya</w>
subur bs</w>
con dom
. In</w>
co .jp</w>
feel ing.</w>
gi sh</w>
Y S</w>
was abi</w>
Sal t</w>
ha d
bu cket</w>
tor ture</w>
ma s.</w>
ri cher</w>
toler ance</w>
大 </w>
Labor atory</w>
contin ent</w>
nicovideo .jp</w>
,000 ,000</w>
ment ality</w>
Ni shi
' nt</w>
Japanese ,</w>
ha un
pati ently</w>
lat te</w>
litt le
dr op
y an</w>
wiki /
imp lan
di g</w>
pro cra
tion ality</w>
ty pe
........ ..</w>
Col umb
sp ace
ang o</w>
rec ycle</w>
han dy</w>
long- distance</w>
k om
bett er
alle vi
go sh</w>
n an</w>
e ternal</w>
deva stated</w>
flo at</w>
cap s</w>
Camer a</w>
C ere
6 4</w>
cra ck</w>
cab in</w>
Japan ..</w>
An na</w>
English ,
sh orts</w>
To chi
Universi ty.</w>
air- conditioner</w>
. in
w ool</w>
vari ation</w>
hamp er</w>
her bs</w>
a ment</w>
y ar
L eg
. If</w>
N ear</w>
e quality</w>
I ran</w>
cli cked</w>
ri l</w>
HA T</w>
DP J</w>
F ra
st ling</w>
l or</w>
G rap
de sks</w>
Lun ar</w>
Th ing</w>
ter m.</w>
obli ged</w>
tra cks</w>
El derly</w>
dete cted</w>
238- 240</w>
tar gets</w>
le dge</w>
Shi mo
Ni hon
circu it</w>
da .</w>
US .</w>
correc tly.</w>
Hi ga
Ex cell
TH AT</w>
p ong</w>
bru shed</w>
team work</w>
o id</w>
any way.</w>
dra in</w>
vocabul aries</w>
objec tives</w>
Cath olic</w>
Pre tty</w>
― </w>
um -cooled</w>
as set</w>
Th er
val ley</w>
a un
cr ap</w>
harv ested</w>
/ 7</w>
info /
VO A</w>
song s.</w>
distinc tive</w>
zo diac</w>
Ti gers</w>
tu p</w>
dispo sal</w>
pharma ceu
per sever
adv oc
diss ol
st ag
h jong</w>
ti mer</w>
time ,
tor .</w>
Po d
ou ter</w>
mar ch</w>
C V</w>
Ho ly</w>
ra cial</w>
A X</w>
rec ite</w>
K I
asse mbly</w>
s have</w>
F igh
ac ce
comb at</w>
th u
ac qui
. &nbsp</w>
barri ers</w>
belong ings</w>
G lee</w>
Le on
A me
Ch an</w>
bon ds</w>
practi sing</w>
idiom atic</w>
Si ster</w>
cha sed</w>
gre e</w>
prof itable</w>
ent -
job- hunting</w>
Mon ster</w>
ya ki
per ception</w>
Lit er
g lan
dub bed</w>
G A</w>
diabe tes</w>
tutor ing</w>
E u
sea .</w>
p als</w>
cont acts</w>
ki ssed</w>
P rom
C ars</w>
Coun cil</w>
ha ts</w>
sh ino
ki a</w>
re moving</w>
in habit
random ly</w>
post graduate</w>
fo g</w>
guil t</w>
du mb</w>
W ars</w>
BI G</w>
ine s.</w>
De vil</w>
Ibar aki</w>
Ven ice</w>
gg ers</w>
P at
S in
cop ying</w>
org/ wiki/
Sam sung</w>
Lan ka</w>
Di sa
Lev el</w>
M I
n arra
mit tedly</w>
s --
gar age</w>
nai ve</w>
na tionally</w>
impul se</w>
or der.</w>
/ article
demonstr ate</w>
HD D</w>
ques tions.</w>
sur ve
☺ </w>
N on-
accomplish ment</w>
' is</w>
C ats</w>
part -
tw enties</w>
Adv anced</w>
hypo the
tat ors</w>
merchandi se</w>
Memor y</w>
compu ter.</w>
ou ting</w>
M J</w>
exclu sive</w>
m na
jud ging</w>
ssi vely</w>
1 .html</w>
f th</w>
Pre mi
Sp ani
Li ver
i den
or o
ac knowledge</w>
out fits</w>
that ,</w>
peti tion</w>
Eur op
r enting</w>
¥ </w>
nerv ous.</w>
re started</w>
A long</w>
A B</w>
H ey
Indi ans</w>
ink aku
ti ble</w>
scre ening</w>
Ma ca
Che mistry</w>
Ha yab
comfort able.</w>
egg plant</w>
comple te
disgu sted</w>
om g</w>
well ...</w>
ulti mately</w>
tic ul
tre ss</w>
sh are
me ter
se da</w>
ku ji</w>
Poli cy</w>
illustr ate</w>
inst al
Bas ketball</w>
W .</w>
J ing
imm ature</w>
sing le-
/ re
sta ir
Kor ea
be th</w>
refu ge
pre scription</w>
18 0</w>
coa ster</w>
practi ce.</w>
/ t
sh t
re tur
Mi ku</w>
Ti an
M ON
li fting</w>
h l</w>
my th</w>
M mm
for cing</w>
may or</w>
do g.</w>
er ies</w>
wom an.</w>
fra gment</w>
se ated</w>
sty list</w>
all ,</w>
g ates</w>
den i
To tor
featur ing</w>
D an</w>
E qu
free ze</w>
b ond</w>
T T
list ens</w>
Fig ure</w>
R yu
geo graph
oni to</w>
Lin ux</w>
R in
Af gh
spe l</w>
F ool</w>
mang o</w>
out dated</w>
cou pon</w>
squ irre
tou ches</w>
drea d
Cap itali
I ni
meth o
// en.wikipedia.
histor y.</w>
tra ce</w>
Basi c</w>
un bear
. --</w>
us tice</w>
gi ble</w>
198 5</w>
partic le</w>
st un
f t
Four th</w>
Pro te
temp tation</w>
cal ender</w>
to ..</w>
aw n</w>
Ju stin</w>
ru mors</w>
Anpan man</w>
Bo dy</w>
H .</w>
Tsu ki
wri tt
K ong
so o</w>
E ver
cat er</w>
Kore an.</w>
G E
AS HI</w>
K ir
Atom ic</w>
L ANG
fo li
snee zing</w>
an ing</w>
/ i
discri min
sit com</w>
ambi tious</w>
negoti ate</w>
W ow
Y ellow</w>
now ,I</w>
sp ouse</w>
hi ke</w>
gest ures</w>
30 -
W HAT</w>
psycho logist</w>
sick .</w>
after -
mat su
R& B</w>
6 2</w>
no i
envel ope</w>
s .html</w>
pe ppers</w>
er o</w>
car ni
frighten ing</w>
が </w>
/ 5</w>
gramm ar
t les</w>
Mac Book</w>
A wa
promin ent</w>
/0 3</w>
distri cts</w>
TE N
ero om</w>
H D</w>
bri ghter</w>
f c
cast les</w>
D am
Tr ou
ti st</w>
face book
medi cation</w>
recru it</w>
t arily</w>
200 0
ul t</w>
semicol on</w>
king dom</w>
awar ded</w>
govern or</w>
irrit ating</w>
ssion al</w>
domin ant</w>
A re
Par agu
De ci
fra me
ri sen</w>
Sa ve</w>
cap su
it ,
g y.</w>
disa ster
in tr
P R</w>
st are</w>
y uku</w>
V I
sp ic
re me
h en</w>
Setsub un</w>
differ enti
Camer on</w>
lo l.</w>
//en.wikipedia. org/wiki/
IG HT</w>
slipper y</w>
ju ven
ac knowled
hori zon</w>
k un
sk a</w>
gest ure</w>
sh ita</w>
sea side</w>
Gun ma</w>
grand children</w>
sa usage</w>
/ 11
slu mp</w>
speak ing.</w>
prov in
Vien na</w>
Tochi gi</w>
three- year-old</w>
harmon ious</w>
PO P</w>
un usually</w>
r ussi
manus cript</w>
wom en.</w>
authen tic</w>
o ily</w>
in ity</w>
Rom ance</w>
ge ar</w>
emphasi zed</w>
ti zed</w>
yester day
S ti
ta sk
F arewell</w>
anno y</w>
much ..</w>
simpli fied</w>
U -
b our</w>
fl ouri
be ...</w>
li b
D a</w>
To fu</w>
lef t-
decrea ses</w>
z he
abili ty.</w>
C O</w>
wr apping</w>
pic ky</w>
F u</w>
min e.</w>
an cing</w>
S UN
N ur
stuff y</w>
busi est</w>
Mi ami</w>
Hai ku</w>
hu gging</w>
chang ed.</w>
O '
carri ers</w>
Swi ss</w>
birth days</w>
inc enti
htt ps</w>
co di
avoca do</w>
gy mnas
war n</w>
u ous</w>
Mick ey</w>
col ds</w>
soon ..</w>
/0 8</w>
bow ls</w>
thr op
enterpri se</w>
. 2011</w>
eye s.</w>
bro iled</w>
W ol
Ken ji</w>
. org</w>
in correctly</w>
G as
witne ssed</w>
lic op
swi m
Ri k
vi g
W R
L AN</w>
stic king</w>
emphasi zes</w>
mess enger</w>
C oke</w>
mat ernity</w>
X- ray</w>
melan cho
5 1</w>
Egyp tian</w>
chemic als</w>
- or-</w>
the dr
Matsu moto</w>
Out side</w>
vari ed</w>
e th</w>
r ats</w>
v enture</w>
S -
sht ml</w>
forbi dden</w>
cla sses.</w>
Hir o</w>
surpri ses</w>
ke t.</w>
no d
mar u</w>
gene tically</w>
stre tching</w>
Re gi
correc t
Hayab usa</w>
amaz on
STE P</w>
assi st
th es</w>
embar as
t ated</w>
YAK I</w>
hea v
S ite</w>
Sak ur
Wh ere
sen sation</w>
F ace</w>
singap ore
- bye</w>
hor n</w>
ma tically</w>
fa int</w>
A th
he mi
f rac
Break fast</w>
swe pt</w>
hi ko</w>
m ura</w>
far ther</w>
pro test</w>
tattoo s</w>
K o</w>
re fined</w>
pap er.</w>
g arian</w>
Mathema tics</w>
mail .</w>
st ..</w>
far .</w>
20 11.
ma -
te am.</w>
four teen</w>
Con su
adver se</w>
Av ril</w>
Ma x</w>
Lea ve</w>
Re actors</w>
tom b</w>
ic ill
le d
An im
nus .edu
M ars</w>
Da y
Sara h</w>
int -
ES E</w>
sev ent
vil le</w>
/ had</w>
al so.</w>
K AT
ta ke
co con
mon ks</w>
dir t</w>
ear ne
main tained</w>
le s
re processing</w>
car d
haha ha
im ing</w>
on wards</w>
ye t..</w>
pass ages</w>
F o
Nu mber</w>
ex- girlfriend</w>
ea fter</w>
pic ks</w>
Ten nis</w>
back pack</w>
be ats</w>
Chap ter</w>
/0 1</w>
cr an
ven ess</w>
De fin
fe ared</w>
g ross</w>
iPhone 4</w>
yc ling</w>
restri ctions</w>
Na deshiko</w>
Nipp on</w>
ch eat</w>
vir tually</w>
ba i</w>
congrat ulate</w>
colle ge
G RE
men us</w>
sp ra
D ome</w>
ear ly.</w>
cap tions</w>
note books</w>
Ton y</w>
necessi ties</w>
dyna sty</w>
po sters</w>
Co st
tr ous
trans form</w>
C ab
symbo li
all y..</w>
B and</w>
ne tic</w>
g rea
up side</w>
wrest ler</w>
9 8
/www. nicovideo.jp</w>
zu mi</w>
condom ini
help less</w>
L FR</w>
strang ely</w>
archi ves</w>
S inc
quarre led</w>
draw s</w>
bb c
wee ds</w>
en e</w>
adjec tive.</w>
Ma in</w>
l ining</w>
L DP</w>
pro verbs</w>
snow man</w>
m ap
draw er</w>
Sh in</w>
for war
ang ar
goo. gl</w>
pri zes</w>
sk ate</w>
doub ted</w>
no .</w>
compar atively</w>
ma cker
AT A</w>
eas ing</w>
Eas y</w>
wor ded</w>
morn ing,</w>
tion ..</w>
bu sh</w>
mi ss
in fla
mar sh
No v
infin ite</w>
ab used</w>
lyri c</w>
out look</w>
cha os</w>
te ens</w>
though tful</w>
D ea
k on</w>
gra ce</w>
come dies</w>
progre ssing</w>
symp tom</w>
. A</w>
slog an</w>
incenti ves</w>
fr an
a su</w>
Tsu yu</w>
gri ef</w>
Hello .</w>
ng e</w>
/ is</w>
air ports</w>
li t
le um</w>
E mma</w>
li fted</w>
Organi zation</w>
19 70</w>
Po ssi
dess erts</w>
/ goo.gl</w>
70 s</w>
that ,I</w>
din ner
insan e</w>
u i
flexi bility</w>
Smo king</w>
Fa shion</w>
b y-
S po
T able</w>
ta k
dea f</w>
on i</w>
C air
gar dening</w>
Tur n</w>
Y UK
enterpri ses</w>
x x</w>
Forei gners</w>
discoun ted</w>
Thr ough
ag e-
hair .</w>
daugh ter.</w>
compli ments</w>
lo cker</w>
to shi
basi l</w>
sa x
con do</w>
short .</w>
pe st</w>
tun nel</w>
ho s
master piece</w>
sne akers</w>
V an</w>
be ard</w>
whi sky</w>
ous y</w>
Pre viously</w>
wor ms</w>
us sion</w>
Ro om</w>
do ts</w>
atten dants</w>
With in</w>
r yu</w>
C R</w>
cater pill
30 ,000</w>
arrang ements</w>
nee dy</w>
ser vers</w>
Fri day.</w>
cru ise</w>
M as
comp as
W ILL</w>
H o</w>
ta i</w>
jud gement</w>
tis sues</w>
jun gle</w>
conve y
gentle men</w>
Man chester</w>
te a.</w>
be twe
oun ding</w>
3. 11</w>
sister -in-law</w>
sen sor</w>
exhi bited</w>
place s.</w>
ex ited</w>
in spi
stro ll</w>
shr inking</w>
な </w>
A so</w>
er up
expec ted.</w>
un ciation</w>
moder ni
199 4</w>
An d..</w>
S at
bal d</w>
car ame
sur ger
Be eth
ya hoo
Jo se
S EN
Hawai ian</w>
Ber lin</w>
bul le
I zu</w>
ordin arily</w>
home sick</w>
Spen ding</w>
HA VE</w>
P lea
, as</w>
Chinese -
Gramma tically</w>
ga tive</w>
CE T
Bi o
ver ti
X P</w>
gra ves</w>
coun ters</w>
Plan ning</w>
attemp ted</w>
weigh ed</w>
wri st</w>
' so</w>
J ason</w>
Bu t.</w>
N atsu
C P</w>
ン </w>
un avoi
N ap
ab oli
Mil k</w>
c ot</w>
shel ls</w>
s age</w>
b onito</w>
wid th</w>
No. 2</w>
Gol f</w>
ca tive</w>
Touri sm</w>
tu m</w>
ca sting</w>
mi st</w>
alle st</w>
ga -
su ka</w>
young sters</w>
at -
dis agre
appear ances</w>
lang-8 .</w>
Mon tre
B OR
sh oud</w>
listen ers</w>
AT I
Ess ay</w>
he licop
Through out</w>
ru shing</w>
snow fall</w>
- related</w>
wash er</w>
pe c
subsi di
s ban
Medic ine</w>
lec tion</w>
commodi ties</w>
Hello ,
virtu e</w>
20 30</w>
br ut
un certain
no ble</w>
m ics</w>
U m</w>
flu ctu
Cent re</w>
E D
cli ps</w>
poli teness</w>
pessimi stic</w>
hesit ating</w>
say ings</w>
fortun e-
med als</w>
2. 5</w>
well- being</w>
ti les</w>
wrink les</w>
eyebr ows</w>
f ty</w>
bu mped</w>
Res ort</w>
- on</w>
2- 3</w>
bir thr
spon ge</w>
Photo shop</w>
se y</w>
ff i
terri fic</w>
syll able</w>
S A
sm allest</w>
Dau ghter</w>
sta mps</w>
T ION</w>
0 7
glo be</w>
50 ,000</w>
- year</w>
U &feature</w>
ki stan</w>
Fr u
protag onist</w>
R ap
aller gies</w>
demon stration</w>
compati ble</w>
Cinder ella</w>
00 .</w>
tu mb
s able</w>
br and-
police men</w>
/0 5</w>
u sion</w>
ca ution</w>
10 km</w>
P RO
Hei an</w>
care er-
chair man</w>
in n
co her
heada ches</w>
all ..</w>
R un</w>
Pu tting</w>
im er</w>
recru it
G S</w>
E g
Proble ms</w>
sche du
E pi
Ka z
semin ars</w>
d ou</w>
new er</w>
dar ts</w>
S wan</w>
fro ze</w>
sear ch
gra ders</w>
envi ed</w>
Shi koku</w>
『 </w>
citiz en
say ing.</w>
fo ster</w>
Mo stly</w>
Engine ers</w>
gu y.</w>
D un
marri ages</w>
ro id</w>
Wa iting</w>
Sh ort
US HI</w>
doub tedly</w>
par adise</w>
mat ched</w>
ign oring</w>
ㅋ </w>
re build</w>
ok an</w>
cica da</w>
atten de
cent ric</w>
distur bed</w>
renew ed</w>
ge t
oy sters</w>
even ings</w>
Apri l.</w>
nega tively</w>
confe ssed</w>
bra tions</w>
ep ic
bit es</w>
gui des</w>
30 AM</w>
Tra de</w>
sa y,</w>
Or din
snow .</w>
soft war
ice- cream</w>
persu aded</w>
a il
for -
he he
/ get</w>
in fini
liter acy</w>
inno v
C as
.com/ article
sa tions</w>
gn e</w>
Taiwan .</w>
Sinc er
min t</w>
Con tro
D D</w>
yu mi</w>
tr e</w>
G ab
ff s</w>
sil k</w>
subur b</w>
rewar ding</w>
No te
honest y</w>
loo k
sa usages</w>
Chi </w>
re store</w>
in fr
diar y..</w>
bo k</w>
ju ggling</w>
can cer
pi ssed</w>
coun cil</w>
prof icient</w>
O den</w>
Yu an</w>
high .</w>
pe el</w>
ex pose</w>
calcu lation</w>
Scienti fic</w>
them ,</w>
conver ted</w>
Cour se</w>
survi v
G ei
Gr an
col oni
par tially</w>
accor dance</w>
dar ker</w>
la yers</w>
Hea vy</w>
happ en.</w>
speciali sts</w>
Liver pool</w>
cru shed</w>
bad ..</w>
O mo
Actu ally,I</w>
V ER</w>
consi sting</w>
na vy</w>
co li</w>
S ar
cas ino</w>
ham ster</w>
attemp ts</w>
par tial</w>
gr in
respe cts</w>
bi ased</w>
revolu tionary</w>
por tal
fai thful</w>
defini tions</w>
worl ds</w>
Wa seda</w>
cre ator</w>
lea king</w>
8 7
right -
bever ages</w>
Tom orrow
him ..</w>
campai gn
Hi ,everyone</w>
depar ted</w>
Han shin</w>
Regar ds</w>
par aly
mu g</w>
Ori gami</w>
Mid- Autumn</w>
I da
equip ments</w>
K E
worth less</w>
Cli ck</w>
admini strative</w>
sp ice</w>
e mailed</w>
competit ors</w>
ri ce.</w>
cent ered</w>
Like wise</w>
be en
holi days.</w>
ar cha
Di strict</w>
b lun
pol ar</w>
/ p
Diff erence</w>
ap parent</w>
air craft</w>
hy per
9 8</w>
sp lay</w>
th m</w>
K ri
ca ffe
lan es</w>
bl ond</w>
O dai
3 ,000</w>
K hos
di m</w>
on ly.</w>
I d</w>
per m</w>
M ount</w>
UR A</w>
relu c
/ en
sle eve</w>
expensi ve
could 't</w>
L ef
m atur
pup il</w>
laugh s</w>
in an</w>
ob iles</w>
affec ting</w>
Mo z
present ing</w>
e tte</w>
Uni versal</w>
r ink</w>
/ 7
H ana</w>
ballo ons</w>
.... .
pit cher</w>
fai th
resi stant</w>
s ence</w>
H AR
translat es</w>
pur suit</w>
Al ready</w>
ti ans</w>
kin d
ic ec
se p
par k.</w>
aw oke</w>
cross -
fel lows</w>
F Y
billi ards</w>
up per
trea sures</w>
horiz ons</w>
Sh owa</w>
perform er</w>
Ch eng
pun c
swi mm
in to
re infor
dur ation</w>
j er
/ sm
anno ys</w>
Gr ou
skil l.</w>
/ g
tra its</w>
high light</w>
pres sures</w>
domin al</w>
kar u</w>
usu al
ga e</w>
ari ans</w>
ya kiniku</w>
lef t.</w>
ma scul
speci fic
st ard</w>
Li fe
some times.</w>
icill in</w>
back ache</w>
wheel chair</w>
Beeth oven</w>
correspon dence</w>
lun ches</w>
fi res</w>
prefer ences</w>
g nation</w>
Hi ll</w>
hom eroom</w>
un limited</w>
G B</w>
class mat
ti de</w>
har bor</w>
m our
r ony
appro ve</w>
p se</w>
' My</w>
sleep iness</w>
experien ce
Ug ly</w>
N I
mini mal</w>
ow ning</w>
HEL LO</w>
sympath ize</w>
á </w>
assu mption</w>
lett uce</w>
Web site</w>
lou der</w>
be lls</w>
C T</w>
ra ises</w>
sban e</w>
Com mer
lea ked</w>
N ick</w>
S hou
attra cting</w>
less on.</w>
Jen ni
scand al</w>
Ma i</w>
reluc tantly</w>
mang as</w>
vari ations</w>
co tt
co a</w>
AR S</w>
rac kers</w>
20 -
Dan cing</w>
fu ck</w>
euthan asia</w>
P it
M ing</w>
rop er</w>
te dious</w>
the a
et ro
base ment</w>
troub le.</w>
m aps</w>
night mar
fami ly
Pr o</w>
Mari a</w>
.or .jp</w>
artic le.</w>
Oh ,
fil med</w>
recover ing</w>
vi vi
rec ital</w>
or s.</w>
tr y.</w>
tic on</w>
' on</w>
en dang
bas es</w>
i dol
mpi res</w>
va cation
W ood</w>
re l</w>
Do gs</w>
Ger man
, .</w>
Si chuan</w>
fla kes</w>
t ants</w>
Bur ger</w>
He ll</w>
conci se</w>
bbc .co.
expan ded</w>
night ..</w>
d ented</w>
ear ing</w>
E M</w>
cha ins</w>
it self.</w>
den ce.</w>
c tion.</w>
h t</w>
execu ted</w>
Admini stration</w>
Fr ank</w>
Cap ital</w>
ut most</w>
Hun ter</w>
nus.edu .sg/
Hon ey</w>
O o
Su zuki</w>
S AM
represent ing</w>
T ask</w>
a &nbsp</w>
dread ful</w>
r fi
cli ff</w>
extra ct</w>
bi scu
ne ath</w>
C ard</w>
PD F</w>
Ishi kawa</w>
wrest ling</w>
ya shi</w>
ani mes</w>
moti va
travel er</w>
A wards</w>
twi sted</w>
medi tation</w>
dipl oma</w>
Sim on</w>
inti mate</w>
childr en
M ine</w>
Pro gram
sc op
trans fered</w>
Priv acy</w>
en abled</w>
sta mina</w>
bud dy</w>
Inter est
v icious</w>
a waiting</w>
opp ings</w>
hun gr
Khos ra
work out</w>
W E
year ,</w>
sud den
deman ded</w>
In crea
bu ds</w>
wi sely</w>
Nan jing</w>
si r
fic tional</w>
de scen
mel ons</w>
exper tise</w>
Physi cal</w>
mini sters</w>
ab road
igh s</w>
fu sion</w>
flu id</w>
ing y</w>
1 40</w>
Jen ny</w>
' How</w>
F err
un it
iP ad
Khosra u</w>
z ens</w>
sun glasses</w>
inter rupt</w>
seri al</w>
inci </w>
li fts</w>
ar cade</w>
lea k
L ear
kk k</w>
ine ss
6 .</w>
nuclear .org/
____ __</w>
el se
s '.</w>
ine fficient</w>
Bo ss</w>
Di et</w>
presti gious</w>
examin er</w>
o x
l s.</w>
Spe ak</w>
dom ain</w>
st rained</w>
H and
Prov ince</w>
ren ov
form ula</w>
bo dy
Aca demic</w>
aer ob
in ting</w>
Malaysi an</w>
ge ek</w>
S ty
M en
calcul ated</w>
Ani mation</w>
men tioning</w>
ste d.</w>
- ups</w>
de su</w>
for i
z y
K aga
D est
R ou
accoun tant</w>
n. d</w>
Pr of</w>
Thank fully</w>
si gni
G race</w>
are job</w>
Summ ary</w>
gene tic
o logist</w>
YO UR</w>
Ha mbur
Fin nish</w>
ri dden</w>
ome let</w>
M un
Miya jima</w>
Indu stri
h all
A sk</w>
Col a</w>
T ro
Su mi
bor ing.</w>
scen ic</w>
floo ds</w>
know ...</w>
ques tioned</w>
Pow er
co des</w>
do s</w>
plan ting</w>
mo lec
Arab ia</w>
Nep al</w>
libr ary.</w>
up grading</w>
sun e</w>
as th
6 00
Co de</w>
mn i</w>
nuclear -
organiz er</w>
o ce
q ing</w>
mista ke.</w>
t ari
/ about</w>
web- site</w>
om s</w>
Y ang</w>
habit u
Pl ant</w>
null, nul</w>
win ners</w>
e- books</w>
199 3</w>
expl oring</w>
L ic
enti a</w>
Sib eria</w>
y '</w>
spec tators</w>
recei ves</w>
handic apped</w>
Oc ca
architec tural</w>
T A
E ric</w>
show .</w>
za ar</w>
ju icy</w>
rea dings</w>
n as
be ll
cou p
ge ant</w>
v as
assist ants</w>
Mil ky</w>
R yo</w>
wh en
syste m
es thetic</w>
ff le</w>
Wi fe</w>
mir ac
B ai
l an</w>
rea dily</w>
bu bbles</w>
to- face</w>
Mar keting</w>
birthr ate</w>
1 _
Pra gue</w>
g yoza</w>
st rac
Mess age</w>
t ence</w>
stereo types</w>
lear n.</w>
M ANG
Li u</w>
inst alling</w>
Visi ting</w>
jump s</w>
excite d.</w>
mud dy</w>
cor ners</w>
ck in</w>
fa de</w>
Emp ire</w>
summ it</w>
la y
adverti se</w>
al ong
Montre al</w>
cata stroph
re placing</w>
philosop h
Jenni fer</w>
tori ous</w>
sm .</w>
think ing.</w>
execu tives</w>
' you</w>
C AN</w>
es is</w>
there ..</w>
cauti ous</w>
sur geon</w>
superi ors</w>
di p</w>
V arious</w>
AR T</w>
dead ly</w>
E mail</w>
Ph D</w>
b ows</w>
dol lar
Ele mentary</w>
deci sive</w>
sper son</w>
par as
AwSF xx
tw o.</w>
mi ssi
illu minated</w>
or ..</w>
. net/
al ternatively</w>
Q &feature</w>
him ,</w>
B ird</w>
Waka yama</w>
Z hang</w>
u u
soun d.</w>
scre en
D own
Be er</w>
stic ker</w>
100 th</w>
provi der</w>
juni ors</w>
back up</w>
cha mp
In cheon</w>
analy zed</w>
teach er
Ital i
/0 6</w>
exce ed</w>
pe di
' have</w>
check -up</w>
E mily</w>
eli minated</w>
win es</w>
shopp ing.</w>
Mon days</w>
p unch</w>
4 &feature</w>
Mom o</w>
i zakaya</w>
inc en
stre tched</w>
B F</w>
bra ke</w>
cock tail</w>
Pa ti
M AN</w>
rice -
morn ing
198 4</w>
Wi ld</w>
conta mination</w>
it is</w>
NAS A</w>
deal er</w>
wel coming</w>
Na oto</w>
be er.</w>
197 9</w>
alpha be
/ a
ku .</w>
e speci
' that</w>
Bri sbane</w>
sub scribe</w>
scholar ships</w>
Ev ening</w>
PLE ASE</w>
con sent</w>
Cer ti
Cal gary</w>
appoint ments</w>
& M</w>
P atri
pharmaceu tical</w>
conf uses</w>
lo a
frea k</w>
m andarin</w>
inter nationally</w>
d ....</w>
S tru
Ad mittedly</w>
i on</w>
ske p
Musi cal</w>
year ..</w>
dis appearing</w>
impre ss</w>
OR I</w>
ab un
Absolu tely</w>
absur d</w>
lo ans</w>
Def ense</w>
en ligh
O scar</w>
th ou
ac up
spon s
individu ally</w>
p unk</w>
disc lose</w>
s co
sion al</w>
perfor ms</w>
dem on</w>
trans formed</w>
Un i</w>
R evolution</w>
ab dominal</w>
lefto vers</w>
f v
b ill
Lo vely</w>
comp act</w>
ri a</w>
nu t
5 9</w>
acup un
si r</w>
pri orities</w>
ho sts</w>
un clear.</w>
over ly</w>
Opp onents</w>
Scot tish</w>
B M
an ch
ste m</w>
Dis covery</w>
imp roper</w>
Acci dent</w>
adole sc
pa yed</w>
te d..</w>
comprehen sive</w>
Ste ven</w>
6 7</w>
transi tive</w>
facili tate</w>
-F i</w>
lap tops</w>
en cing</w>
ti tu
tr ap</w>
ke st</w>
well ,</w>
dream t</w>
h k
la st.</w>
B T</w>
repa iring</w>
su .</w>
Gradu ally</w>
Profe ssional</w>
ó </w>
Pr op
d on.</w>
Ju lia</w>
colleag u
Se e
Prepar ing</w>
re plying</w>
ma sc
F lower</w>
view .</w>
Al zhe
cur tains</w>
Fre e
A my</w>
ol ulu</w>
friend s..</w>
al lo
wan dered</w>
so fter</w>
pois oning</w>
ci se</w>
Mom o
pow er.</w>
pre valent</w>
sk y.</w>
Isla mic</w>
8 6</w>
lec ting</w>
hea ven
sentence ...</w>
sc ru
di mini
emplo y
da o</w>
Ul ti
Musli m</w>
compe lled</w>
Mich el</w>
sta tic</w>
S car
contra cted</w>
Marri age</w>
di eting</w>
Ser ies</w>
sh ell
air y</w>
life ..</w>
condomini um</w>
T our</w>
も </w>
D anish</w>
st s.</w>
e i</w>
hh hh</w>
schol ars</w>
class rooms</w>
fil ls</w>
aff lu
disc re
dis appears</w>
brow sed</w>
U h
G F</w>
dr ying</w>
rewar ded</w>
i g
drow sy</w>
re st.</w>
＞ </w>
progra mm
ac tion.</w>
' ...
Li st</w>
A z
aw fully</w>
import ant
sugges tion.</w>
hope less</w>
neighb our</w>
pi ll</w>
con temp
v ali
Totor o</w>
time .
Pho enix</w>
occurr ence</w>
inter net
endang ered</w>
disa ve</w>
pi tiful</w>
though t
p lo
re members</w>
ch ew</w>
XX XX
sal sa</w>
Loc al</w>
sti r</w>
C rea
Hon olulu</w>
car p
ul tra
mer ry</w>
Me disave</w>
rehabili tation</w>
Tra ffic</w>
Nor mal</w>
struc tured</w>
1Q 84</w>
Inter net.</w>
servic e.</w>
y l</w>
P aper</w>
pre view</w>
U U
da mp</w>
C lar
zh en</w>
Nic o</w>
nor theast</w>
exagger ation</w>
Ida ho</w>
,, ,
ye on</w>
F 1</w>
ant s.</w>
ce -
WO W</w>
cal med</w>
master pieces</w>
ex cess</w>
ar oun
bo y.</w>
level .</w>
fear ful</w>
nod ded</w>
GO D</w>
Sta ying</w>
easy going</w>
mar ath
kid n
contra cts</w>
oppo t
loc als</w>
lanter n</w>
th ai</w>
dece ased</w>
Mon day.</w>
te ll
Dep ending</w>
Less on</w>
web site
Paragu ay</w>
Mi sta
T et
Speci fically</w>
s- in-law</w>
Wat er
show ers</w>
M asa</w>
conduc ting</w>
di versi
mi le
gli mp
M ori</w>
ob sc
vi br
qui site</w>
tr y
H old</w>
ko to</w>
Jour ney</w>
U. S.
par ti
k it</w>
associ ates</w>
mur m
Dad dy</w>
da ma</w>
hospit al.</w>
fli ck
English .
//www. gen
impli cations</w>
mean ...</w>
B ar</w>
ignor ant</w>
postp one</w>
publi c
sna kes</w>
comple tion</w>
C L
blo gging</w>
examin ees</w>
d ge
200 8
mm m</w>
bl on
Eli za
pa mp
nick y</w>
addi tion
sa ka</w>
LO ST</w>
G ay</w>
CP A</w>
blu es</w>
ac t
refriger ators</w>
inter f
cur ly</w>
rep ay</w>
ang les</w>
eco logical</w>
K re
Pr ay</w>
oper ates</w>
Hak ata</w>
adv ice.</w>
illustr ates</w>
comple ting</w>
un related</w>
bur gers</w>
HA PP
100 ,000</w>
illu sion</w>
Fin d</w>
J on
per ation</w>
/ could</w>
- minded</w>
oo d.</w>
女 </w>
ra se</w>
com ing.</w>
ri cs</w>
A &feature</w>
si mulation</w>
O ption</w>
tru st
tal lest</w>
wikipe dia</w>
mini ature</w>
w all
la kes</w>
ss a</w>
hard working</w>
con vic
petro l</w>
ess entially</w>
har d..</w>
in tui
wit ness</w>
n inth</w>
bac ky
sp li
conno tation</w>
Fi ji</w>
A E
trous ers</w>
lo yal</w>
l v
Re ason</w>
Y &feature</w>
I chi
explo de</w>
0 g</w>
inter ro
tur tles</w>
e els</w>
b ery</w>
super -
wa ved</w>
becu ase</w>
rob bed</w>
anticip ated</w>
stro kes</w>
I phone</w>
comp onent</w>
par o
Mi ki</w>
al titude</w>
Simp ly</w>
Heal th
am ura</w>
evacu ated</w>
dis charged</w>
form ers</w>
/ 3
tu tors</w>
R el
suff ers</w>
re lying</w>
re sorts</w>
cin o</w>
19 45</w>
star bucks</w>
ro tation</w>
a vatar</w>
tra ditionally</w>
di ed.</w>
100 00</w>
versi de</w>
I Z
russi an</w>
Ang els</w>
autom obiles</w>
Yan ke
Re li
sh allow</w>
he ck</w>
s iness</w>
nuclear.org/ info/
Com mon</w>
under neath</w>
boy friend.</w>
choo ses</w>
gi -
Smi le</w>
Y ep</w>
E mer
Where as</w>
Ro ger</w>
inc lu
econom ies</w>
dolph in</w>
correc tions.</w>
C lear
b ore</w>
t ar</w>
bab y.</w>
counsel ing</w>
girl friend.</w>
Yama guchi</w>
ell ing</w>
supp lied</w>
soy bean</w>
sub stitu
bu mp
Ven usi
temp o</w>
aaaa aaaa
i i</w>
F lowers</w>
k ick
Proble m</w>
crac ked</w>
L CD</w>
mini -
ca ke.</w>
L ate</w>
d ors</w>
A sh
conson ants</w>
toler ant</w>
Fried land</w>
JAP AN
swe ated</w>
mo ld</w>
cata strophe</w>
Yang yang</w>
sti ve</w>
horiz on
RE E</w>
vac cin
Dep p</w>
on line
sa iling</w>
Hi ,
15 00</w>
emo ticon</w>
Hang zhou</w>
fil l
sc ra
chang eable</w>
Per fume</w>
un d</w>
skunk works</w>
annu ally</w>
bi an</w>
li hood</w>
wa -
Sub way</w>
sk ater</w>
stand ar
ner s.</w>
coun tdown</w>
unbeliev ably</w>
oy ster</w>
da sh</w>
j yo</w>
lean ed</w>
ba zaar</w>
interrup ted</w>
be ach
ri tual</w>
12 -
don ald</w>
much ,</w>
distinc tion</w>
sarca stic</w>
B -
V inci</w>
G FR</w>
il y.</w>
o ,
up ..</w>
E VER
gun ate</w>
W o
B ath</w>
B y
n ag
ir responsible</w>
B re
disc </w>
kilome ter</w>
vita mins</w>
zz a</w>
JP Y</w>
bur gh</w>
susp ici
fisher man</w>
summ ers</w>
s tics</w>
au to</w>
soooo oo</w>
arr ow</w>
dru mmer</w>
Je ssi
def ence</w>
ing '</w>
ri ver
hypothe tical</w>
vo ted</w>
ph on
thor ough</w>
chur ches</w>
' at</w>
domin ated</w>
ear th
Sit uation</w>
C ele
dang er
fi ssion</w>
UD ON</w>
Ch rome</w>
supple ments</w>
F F</w>
de bu
Sincer ely</w>
U sed</w>
Y U</w>
che eks</w>
ko shi</w>
I O
aff ili
motiv ates</w>
5 ,
7 am</w>
F am
pre fers</w>
lei surely</w>
F ox</w>
bla de</w>
dia mond</w>
UT F
spil led</w>
Lu ck</w>
consist ently</w>
0 ,000</w>
Tom o-chan</w>
//www. nature
fat ty</w>
Gu y</w>
Scienti sts</w>
pen ci
sur ren
J er
adm ir
Stan ford</w>
□ </w>
Q ing
tox ic</w>
gov .sg/
pe d.</w>
over weight</w>
mo h
mi e</w>
pop corn</w>
kit ty</w>
cr ow</w>
hor se
mi su
p opped</w>
emb assy</w>
Bu y</w>
tr um</w>
9 pm</w>
pronoun cing</w>
fol ded</w>
mani pul
/ '
pengu ins</w>
T AN
ck ers</w>
Vol un
paren thesis</w>
cyclope dia</w>
AW A</w>
shir o</w>
open- minded</w>
n es</w>
s cep
poli shed</w>
11 pm</w>
Ra dio
fra ud</w>
OM E</w>
regre tful</w>
schol ar</w>
procra stin
A kita</w>
fa x</w>
' was</w>
char is
exp ired</w>
be aring</w>
don uts</w>
lo tus</w>
An d
un conscious</w>
car d.</w>
Pron unciation</w>
' as</w>
rou tes</w>
G yoza</w>
/ 8</w>
4 000</w>
An ci
soci able</w>
sing ular.</w>
insi sts</w>
g ori
wai i</w>
pan els</w>
mean while</w>
do zens</w>
Hi karu</w>
ar u</w>
reac tor
am -
instal lation</w>
K ey</w>
But ...</w>
hel lo
u a</w>
P il
te -
ty po
home work
dr yer</w>
tr ed</w>
New sp
G ul
terri ble
festi val
D ong
knowledge able</w>
const rain
fast- food</w>
bang s</w>
om at
re i
Gu ys</w>
in ds</w>
L ap
M is
k or
Lo tte</w>
sax ophone</w>
depic ted</w>
La ura</w>
k ab
Universi ties</w>
brac kets</w>
creep y</w>
ap pen
Ce ll</w>
Pi x
/ i</w>
I V
air port
Ad verti
tur b
Gi ving</w>
in definite</w>
b ent</w>
brea ds</w>
bu yer</w>
un ite</w>
L '
Her oes</w>
murder er</w>
Thank s.</w>
it ,I</w>
wi fe.</w>
happ iness.</w>
inno c
Vil lage</w>
in al</w>
詞 </w>
collabor ation</w>
gr ound.</w>
sla ves</w>
la h</w>
marri ed.</w>
tan ned</w>
' Do</w>
/ 9</w>
da -
impo sed</w>
acu te</w>
publi sh
NE W
retri eved</w>
diction ar
inhabit ants</w>
Wh it
at ing.</w>
dis ap
lo b
N eigh
au dition</w>
Ch ang</w>
Ri der</w>
00 yen</w>
myster ies</w>
M ili
differ ent
cere br
di um-cooled</w>
a _
ON G</w>
lat er
UF O</w>
prou dly</w>
cou d</w>
wan der</w>
an alog</w>
H ang</w>
H S</w>
ear phones</w>
cation s/
tic a</w>
oo th</w>
T an</w>
hol ders</w>
graph s</w>
Mat t</w>
AG E</w>
Pa ul
in au
ty po</w>
emb race</w>
5 7</w>
ch al
produc ers</w>
P V</w>
O reg
Ge o
bi ble</w>
/ h</w>
す </w>
ca vi
e g</w>
fol k
l dering</w>
char ging</w>
ex ter
5 7
Fort un
Occa sion
bit ch</w>
Mo ve</w>
re consider</w>
ER E</w>
' n</w>
unavoi dable</w>
ar do</w>
Ju do</w>
thedr al</w>
d un
C H</w>
P ep
Musli ms</w>
over sleep</w>
C K</w>
be ef
on ships</w>
en cies</w>
//www. i
Jan u
edi ble</w>
Vi ew</w>
break .</w>
y le</w>
tap es</w>
puzz les</w>
Japanese ..</w>
m ite</w>
Any body</w>
Wil pert</w>
re sour
poten tially</w>
petro leum</w>
nee d
ef fort
asth ma</w>
eye la
d ences</w>
8 9
B I</w>
streng ths</w>
Sta dium</w>
oo t</w>
gener ates</w>
li ty</w>
p p</w>
inva sion</w>
Consi der</w>
Ver y-
S et</w>
face- to-face</w>
bi g
Be side</w>
5 8</w>
T D
re s
am is</w>
refer ences</w>
min o</w>
consul tation</w>
second hand</w>
D ong</w>
tion al.</w>
hi er
g one.</w>
in corpor
Bu ying</w>
Mongo lia</w>
MANG A</w>
origin s</w>
ri pe</w>
carame l</w>
com ic
Fi eld</w>
cr abs</w>
ex por
contro ls</w>
yi eld</w>
O w
fra mes</w>
posse ssion</w>
† </w>
Wat an
re stored</w>
Au th
mathema tical</w>
compens ate</w>
for gi
thing ..</w>
per c
ag ents</w>
BB S</w>
NE W</w>
un deni
cha -
W AS</w>
Symp hony</w>
ne atly</w>
persi st</w>
deliver ing</w>
reg ul
finish ed.</w>
uni qu
down turn</w>
ha zard</w>
- fi</w>
Shi man
jac kets</w>
blo g.</w>
sta tis
Interest ingly</w>
ener y</w>
i f
soooo oooo
vac ant</w>
direc tors</w>
be gg
sub jective</w>
s ought</w>
ver anda</w>
boo t</w>
An n</w>
hibi tion</w>
bat ter</w>
capsu le</w>
inst inc
F OR
co ck</w>
cloth s</w>
Confu cius</w>
lear ning.</w>
TH AN
gur ation</w>
dr om
An dre
ac use</w>
br on
crac kers</w>
// news.
death .</w>
re jec
fing er
heart warming</w>
bu ri</w>
Sa shimi</w>
ag ne</w>
bu ff
icec ream</w>
se d
a sa
a holic</w>
ben eath</w>
Be ar</w>
high lighted</w>
me tro</w>
ö </w>
a- san</w>
ki ssing</w>
stuff .</w>
utili zed</w>
Sp a</w>
mun ici
. There</w>
prepar es</w>
o v</w>
F ried</w>
g ly
St and</w>
up loading</w>
acqu iring</w>
T ama
supersti tion</w>
Eliza beth</w>
spell ings</w>
attribu ted</w>
To ge
per ceived</w>
bri ck</w>
one ...</w>
r he
A qu
capit als</w>
inc tion</w>
vit ality</w>
ne se</w>
con stitu
car p</w>
ra sh</w>
OO L</w>
mo s</w>
L ad
/0 7</w>
In dependence</w>
ref ere
newsp ap
pu c
cor ri
g &feature</w>
L L
文 </w>
0 -
Liber al</w>
Afgh ani
者 </w>
s &nbsp</w>
De si
al ley</w>
st ure</w>
6 6
environ ment.</w>
Ki yomi
Pa y
ago ,I</w>
Fac tory</w>
199 2</w>
g id</w>
W AN
Cere mony</w>
m y.</w>
tooth brush</w>
head phones</w>
mono ton
eco- friendly</w>
view er</w>
pine apple</w>
S ki
fami ly-
Tit les</w>
gra sp
4 3
P an</w>
Oh .</w>
commit ment</w>
p- hop</w>
T est
Bu sh</w>
198 9</w>
condi tion.</w>
wom an
Sun shine</w>
eigh th</w>
Ch op
Rik ako</w>
some day.</w>
Fur ther</w>
hard- working</w>
Liber ty</w>
man -
chap ters</w>
Asa hi</w>
ali stic</w>
legi s
it al
lat ely.</w>
R on
k ings</w>
tow els</w>
ni g</w>
up dating</w>
vio lation</w>
/ ...
Go gh</w>
gra v
A i</w>
Al tern
entri es.</w>
v ag
In flu
Cau ca
th ur
haha haha
sh ines</w>
mat ching</w>
def en
re construction</w>
d '
quick er</w>
confection ery</w>
L t
Bru ce</w>
presi dential</w>
. He</w>
TO R
con gratulations</w>
Fam ous</w>
vo cational</w>
u me
sli ppers</w>
log in</w>
ma de.</w>
Gradu ate</w>
Ar ri
Choo se</w>
acqui sition</w>
cro codi
de part</w>
er nal</w>
ce ly</w>
gri ll</w>
＝ </w>
Po si
E no
tran qu
30 s</w>
Li ly</w>
g ing
as leep
Oreg on</w>
bar king</w>
Par t-
F O
li ters</w>
abun dance</w>
attende es</w>
/ 12
Sa int-
eri ously</w>
Sing ing</w>
jour ne
V isa</w>
aff ir
Ha ha
Uk rain
T .
inc ense</w>
ar med</w>
think ..</w>
al e
Il lu
serv atory</w>
mani fe
bri ght
, etc</w>
sa .</w>
them ...</w>
lou nge</w>
rain ing.</w>
b f</w>
neighb ours</w>
col lage</w>
G en</w>
/ 6</w>
posi tion.</w>
to tal
P oc
slu g
bor ders</w>
conf erences</w>
F IN
adv entures</w>
as ons</w>
mna sium</w>
bath rooms</w>
UR E</w>
Alzhe imer</w>
cocon ut</w>
motor cycles</w>
burea u
here ,</w>
se is
pa ths</w>
en sures</w>
ge t-
life ,</w>
la cked</w>
no t-
kit tens</w>
acc used</w>
Ef fect</w>
G w
sho gi</w>
reason ing</w>
Matsu ri</w>
ten -
Architec ture</w>
compo sing</w>
ef l</w>
conve ys</w>
ac ous
duc ks</w>
backy ard</w>
WI TH</w>
so ,
stri king</w>
eeee eeee
P ay</w>
H us
in take</w>
50 s</w>
Ir on</w>
the y
go al
ku j
partici ple</w>
Sing le</w>
see ..</w>
opini on
tru cks</w>
rul ed</w>
today ...</w>
sur ing</w>
prece dented</w>
T as
n at
De sper
r .com</w>
n ick</w>
Nik ko</w>
j ar
serv ants</w>
b les</w>
a vi
O da
ci sm</w>
ra s
col dness</w>
abbrevi ated</w>
vio let</w>
/ v
Hou sing</w>
navi gation</w>
ci </w>
in stan
, 2009</w>
year s,</w>
anno y
da ddy</w>
pleas antly</w>
consequ ently</w>
ve g
う </w>
stat e-
rele ases</w>
mat s</w>
duc tion</w>
hun ter</w>
ne ss
b -
L ess</w>
Cur rent</w>
U P
en ched</w>
C ake</w>
medi ately</w>
K Y</w>
like ..</w>
cap abilities</w>
ra ck</w>
c &feature</w>
Asa da</w>
e mit</w>
. asp</w>
reflec ting</w>
In surance</w>
ye d.</w>
wa x</w>
presu me</w>
wikipedia. org</w>
ssi </w>
marsh m
//www. world-
N inja</w>
198 7</w>
regre tting</w>
pe aches</w>
dra g</w>
Fe bru
beauti cian</w>
di stor
7 .</w>
clo ses</w>
rul ing</w>
ad es</w>
bro c
lunch time</w>
tar u</w>
S our
to a
inst inct</w>
mista ken
anti bio
as ant</w>
pp l</w>
channe l
ce ..</w>
In tel
sun burn</w>
rang ing</w>
ste aling</w>
humi di
M i</w>
lanter ns</w>
tri gg
more ...</w>
d ka</w>
Ak ira</w>
Hi .</w>
scoo ter</w>
measure ment</w>
po t
EL L</w>
N .</w>
out fit</w>
Friend ship</w>
illu min
ju st
some time
volu mes</w>
did 't</w>
ri sed</w>
numb er.</w>
I &feature</w>
Isla m</w>
foo ds.</w>
me tal
in different</w>
knowled ge.</w>
al together</w>
Anywa y,</w>
prosp erous</w>
O asis</w>
Jor dan</w>
Fre sh</w>
Mi x</w>
pay day</w>
scre ens</w>
ele g
curri cular</w>
dem entia</w>
par lor</w>
disp ute</w>
and ...</w>
Na o
S ound</w>
Toku shima</w>
Toge ther</w>
vani shed</w>
por n</w>
Re turn</w>
bro th</w>
si ghted</w>
Direc tor</w>
strong .</w>
ju do</w>
uk o</w>
sugg esting</w>
earthqua ke
S AT</w>
vi sed</w>
n ature.</w>
sl ender</w>
reci eve</w>
Ju mp</w>
ri ly</w>
- shaped</w>
thre ats</w>
Bri an</w>
p imp
, not</w>
Fu ri
jun ctive</w>
modi fying</w>
as sured</w>
ww ww
Pro cess</w>
di ent</w>
Anci ent</w>
ar ou
quo tations</w>
Yo shino
fin dings</w>
ol ds</w>
tic k
colour ful</w>
at ched</w>
re pl
imp erial</w>
To tal</w>
ko .</w>
uku lele</w>
gi g
ye t
we dne
Ci vil</w>
can teen</w>
evol ved</w>
ine d.</w>
cu be</w>
Cap tain</w>
do ...</w>
Bro thers</w>
theore tical</w>
de fic
Australi a.</w>
E L</w>
batt le
sk ies</w>
S w
persi stent</w>
predic tion</w>
fle a</w>
toler ate</w>
brid ges</w>
O zawa</w>
mb a</w>
ab strac
therap ist</w>
recomm ends</w>
ha tred</w>
qu it
acce ssed</w>
Well .</w>
/ 1
. be</w>
ti a</w>
fre e-
itali an</w>
Sep t</w>
e Bay</w>
Grand ma</w>
st aple</w>
advi sor</w>
Af fairs</w>
tit les.</w>
a ud
í </w>
M ulti
expendi tures</w>
ol d
stri kes</w>
respec table</w>
th ,</w>
diagno sis</w>
extra cted</w>
A way</w>
determin es</w>
/ w
y ,but</w>
ex emp
mm on</w>
duc ed</w>
/ are</w>
Met al</w>
elec tions</w>
／ </w>
on ous</w>
bu z
or tho
/ photos</w>
excep tional</w>
sleep y.</w>
ap pr
[...]
